// 自动生成：手势 CNN INT8 TFLite 模型
// 输入 96x96x1 int8, 输出 6 类
#pragma once
#include <stdint.h>
const int gesture_n_classes = 6;
const int gesture_img_size = 96;
const unsigned int gesture_model_len = 99640;
const unsigned char gesture_model[] = {28, 0, 0, 0, 84, 70, 76, 51, 20, 0, 32, 0, 28, 0, 24, 0, 20, 0, 16, 0, 12, 0, 0, 0, 8, 0, 4, 0, 20, 0, 0, 0, 28, 0, 0, 0, 140, 0, 0, 0, 12, 1, 0, 0, 0, 98, 1, 0, 16, 98, 1, 0, 88, 132, 1, 0, 3, 0, 0, 0, 1, 0, 0, 0, 4, 0, 0, 0, 234, 156, 254, 255, 12, 0, 0, 0, 28, 0, 0, 0, 60, 0, 0, 0, 15, 0, 0, 0, 115, 101, 114, 118, 105, 110, 103, 95, 100, 101, 102, 97, 117, 108, 116, 0, 1, 0, 0, 0, 4, 0, 0, 0, 104, 255, 255, 255, 30, 0, 0, 0, 4, 0, 0, 0, 8, 0, 0, 0, 111, 117, 116, 112, 117, 116, 95, 48, 0, 0, 0, 0, 1, 0, 0, 0, 4, 0, 0, 0, 242, 156, 254, 255, 4, 0, 0, 0, 15, 0, 0, 0, 107, 101, 114, 97, 115, 95, 116, 101, 110, 115, 111, 114, 95, 49, 56, 0, 3, 0, 0, 0, 92, 0, 0, 0, 44, 0, 0, 0, 4, 0, 0, 0, 184, 255, 255, 255, 34, 0, 0, 0, 4, 0, 0, 0, 19, 0, 0, 0, 67, 79, 78, 86, 69, 82, 83, 73, 79, 78, 95, 77, 69, 84, 65, 68, 65, 84, 65, 0, 220, 255, 255, 255, 33, 0, 0, 0, 4, 0, 0, 0, 19, 0, 0, 0, 109, 105, 110, 95, 114, 117, 110, 116, 105, 109, 101, 95, 118, 101, 114, 115, 105, 111, 110, 0, 8, 0, 12, 0, 8, 0, 4, 0, 8, 0, 0, 0, 32, 0, 0, 0, 4, 0, 0, 0, 19, 0, 0, 0, 109, 105, 110, 95, 114, 117, 110, 116, 105, 109, 101, 95, 118, 101, 114, 115, 105, 111, 110, 0, 35, 0, 0, 0, 240, 96, 1, 0, 232, 96, 1, 0, 212, 96, 1, 0, 192, 96, 1, 0, 172, 96, 1, 0, 132, 96, 1, 0, 244, 94, 1, 0, 228, 93, 1, 0, 212, 61, 0, 0, 68, 61, 0, 0, 52, 25, 0, 0, 164, 24, 0, 0, 148, 6, 0, 0, 68, 6, 0, 0, 180, 1, 0, 0, 132, 1, 0, 0, 44, 1, 0, 0, 36, 1, 0, 0, 28, 1, 0, 0, 20, 1, 0, 0, 12, 1, 0, 0, 4, 1, 0, 0, 252, 0, 0, 0, 244, 0, 0, 0, 236, 0, 0, 0, 228, 0, 0, 0, 220, 0, 0, 0, 212, 0, 0, 0, 204, 0, 0, 0, 196, 0, 0, 0, 188, 0, 0, 0, 180, 0, 0, 0, 148, 0, 0, 0, 116, 0, 0, 0, 4, 0, 0, 0, 34, 158, 254, 255, 4, 0, 0, 0, 96, 0, 0, 0, 12, 0, 0, 0, 8, 0, 14, 0, 8, 0, 4, 0, 8, 0, 0, 0, 16, 0, 0, 0, 40, 0, 0, 0, 0, 0, 6, 0, 8, 0, 4, 0, 6, 0, 0, 0, 4, 0, 0, 0, 1, 0, 0, 0, 235, 3, 0, 0, 12, 0, 24, 0, 20, 0, 16, 0, 12, 0, 4, 0, 12, 0, 0, 0, 129, 99, 142, 23, 244, 120, 253, 10, 2, 0, 0, 0, 2, 0, 0, 0, 4, 0, 0, 0, 6, 0, 0, 0, 50, 46, 49, 55, 46, 48, 0, 0, 142, 158, 254, 255, 4, 0, 0, 0, 16, 0, 0, 0, 0, 0, 0, 0, 0, 0, 0, 0, 0, 0, 0, 0, 0, 0, 0, 0, 170, 158, 254, 255, 4, 0, 0, 0, 16, 0, 0, 0, 49, 46, 49, 52, 46, 48, 0, 0, 0, 0, 0, 0, 0, 0, 0, 0, 180, 126, 254, 255, 184, 126, 254, 255, 188, 126, 254, 255, 192, 126, 254, 255, 196, 126, 254, 255, 200, 126, 254, 255, 204, 126, 254, 255, 208, 126, 254, 255, 212, 126, 254, 255, 216, 126, 254, 255, 220, 126, 254, 255, 224, 126, 254, 255, 228, 126, 254, 255, 232, 126, 254, 255, 236, 126, 254, 255, 2, 159, 254, 255, 4, 0, 0, 0, 72, 0, 0, 0, 171, 180, 216, 85, 83, 170, 127, 204, 193, 217, 74, 220, 245, 127, 107, 253, 251, 95, 38, 175, 54, 227, 113, 226, 82, 127, 247, 203, 191, 246, 228, 201, 32, 240, 127, 86, 171, 194, 159, 129, 27, 45, 189, 161, 238, 62, 75, 200, 208, 172, 180, 163, 127, 93, 129, 174, 52, 69, 32, 197, 245, 110, 214, 222, 64, 8, 70, 127, 8, 113, 94, 7, 86, 159, 254, 255, 4, 0, 0, 0, 32, 0, 0, 0, 213, 251, 255, 255, 75, 217, 255, 255, 8, 232, 255, 255, 73, 4, 0, 0, 105, 250, 255, 255, 125, 252, 255, 255, 147, 3, 0, 0, 23, 217, 255, 255, 130, 159, 254, 255, 4, 0, 0, 0, 128, 4, 0, 0, 251, 32, 23, 74, 227, 21, 49, 55, 255, 47, 65, 60, 29, 33, 70, 231, 254, 38, 254, 234, 247, 190, 12, 35, 0, 19, 16, 29, 253, 217, 13, 24, 208, 238, 235, 220, 239, 236, 233, 39, 41, 223, 230, 171, 12, 26, 49, 49, 239, 213, 202, 5, 234, 216, 46, 234, 41, 24, 42, 211, 19, 26, 1, 6, 199, 177, 207, 129, 250, 249, 30, 182, 216, 198, 208, 25, 19, 37, 33, 208, 175, 210, 215, 48, 39, 184, 215, 184, 37, 47, 34, 226, 41, 63, 207, 94, 156, 52, 226, 215, 36, 202, 229, 18, 250, 29, 231, 105, 53, 57, 185, 76, 253, 199, 204, 127, 3, 70, 57, 210, 188, 1, 233, 75, 27, 56, 38, 218, 228, 88, 7, 62, 1, 29, 245, 226, 191, 56, 54, 111, 175, 51, 49, 49, 37, 3, 25, 200, 187, 175, 70, 14, 221, 230, 4, 206, 179, 228, 72, 92, 127, 6, 45, 233, 34, 186, 210, 49, 13, 12, 208, 5, 2, 62, 188, 21, 104, 62, 85, 200, 225, 37, 205, 53, 80, 91, 16, 26, 202, 50, 187, 12, 231, 26, 195, 159, 223, 207, 245, 21, 39, 93, 52, 199, 47, 152, 254, 40, 10, 6, 33, 8, 37, 65, 181, 204, 209, 10, 146, 196, 19, 39, 12, 203, 220, 154, 148, 252, 205, 51, 243, 218, 9, 173, 228, 76, 11, 29, 219, 174, 66, 44, 62, 28, 192, 129, 83, 1, 248, 189, 222, 40, 58, 181, 49, 181, 9, 23, 47, 13, 54, 7, 49, 36, 198, 23, 170, 69, 172, 165, 40, 228, 235, 219, 179, 228, 191, 232, 245, 3, 216, 194, 38, 57, 4, 63, 239, 173, 33, 204, 14, 43, 13, 218, 52, 78, 209, 44, 86, 122, 215, 60, 227, 80, 43, 243, 24, 61, 231, 44, 216, 176, 24, 186, 39, 180, 180, 47, 28, 85, 242, 35, 16, 205, 204, 237, 207, 40, 71, 22, 64, 226, 67, 237, 89, 55, 8, 223, 188, 240, 64, 241, 57, 182, 177, 208, 152, 129, 220, 179, 56, 255, 200, 11, 212, 207, 73, 38, 32, 185, 37, 213, 226, 104, 191, 22, 217, 22, 74, 210, 200, 17, 68, 153, 207, 167, 218, 117, 99, 228, 180, 12, 7, 56, 129, 162, 174, 198, 87, 136, 48, 59, 197, 28, 65, 228, 183, 196, 253, 0, 38, 41, 28, 113, 241, 216, 8, 238, 234, 254, 32, 36, 40, 244, 251, 245, 236, 223, 6, 232, 183, 8, 204, 198, 44, 14, 38, 246, 194, 34, 246, 245, 2, 46, 34, 15, 209, 0, 49, 235, 35, 58, 26, 11, 248, 23, 255, 7, 35, 25, 15, 248, 4, 2, 21, 57, 9, 15, 37, 244, 252, 229, 24, 36, 63, 46, 53, 155, 16, 227, 239, 39, 47, 11, 39, 241, 213, 231, 3, 240, 37, 39, 44, 8, 226, 239, 25, 226, 8, 195, 31, 145, 16, 6, 219, 204, 241, 6, 184, 129, 221, 11, 203, 201, 10, 192, 203, 127, 222, 77, 26, 199, 11, 187, 185, 219, 29, 42, 253, 238, 216, 25, 85, 35, 190, 25, 106, 75, 20, 188, 222, 244, 17, 165, 14, 250, 182, 86, 36, 55, 211, 12, 205, 26, 24, 54, 201, 216, 233, 67, 250, 58, 240, 181, 70, 123, 54, 8, 213, 235, 51, 49, 240, 214, 53, 205, 248, 214, 37, 69, 245, 227, 0, 95, 34, 15, 224, 134, 81, 164, 1, 75, 6, 193, 63, 221, 193, 234, 107, 58, 3, 33, 194, 218, 211, 228, 162, 181, 189, 163, 23, 69, 165, 71, 0, 222, 82, 7, 181, 199, 172, 87, 87, 64, 75, 162, 106, 34, 18, 127, 255, 91, 102, 201, 43, 163, 60, 236, 218, 177, 198, 218, 172, 204, 39, 241, 222, 241, 5, 11, 41, 160, 226, 24, 161, 85, 109, 154, 245, 79, 11, 182, 192, 30, 35, 32, 232, 58, 48, 218, 215, 229, 127, 34, 242, 3, 16, 195, 62, 26, 63, 181, 218, 76, 43, 47, 25, 11, 254, 71, 88, 30, 60, 2, 60, 31, 105, 188, 16, 179, 208, 27, 231, 98, 63, 29, 33, 77, 215, 143, 197, 53, 189, 234, 170, 244, 189, 79, 79, 91, 187, 240, 169, 0, 58, 231, 27, 210, 1, 167, 238, 221, 30, 0, 202, 84, 227, 8, 59, 41, 63, 13, 24, 95, 234, 40, 234, 245, 32, 230, 206, 242, 218, 43, 6, 31, 244, 45, 246, 249, 234, 239, 239, 52, 47, 46, 248, 47, 31, 19, 245, 216, 230, 166, 204, 55, 49, 19, 1, 207, 12, 182, 244, 26, 234, 6, 9, 21, 252, 245, 228, 46, 23, 56, 8, 22, 251, 129, 226, 48, 217, 194, 35, 249, 201, 4, 213, 41, 244, 194, 53, 9, 39, 54, 227, 59, 214, 214, 2, 33, 251, 44, 200, 82, 36, 204, 253, 221, 57, 112, 207, 127, 222, 235, 4, 210, 62, 34, 33, 118, 7, 14, 246, 42, 220, 65, 0, 11, 231, 240, 9, 85, 250, 22, 57, 63, 31, 68, 15, 24, 54, 56, 217, 11, 83, 242, 77, 215, 20, 62, 11, 25, 91, 246, 34, 213, 171, 222, 226, 87, 189, 4, 201, 191, 31, 242, 92, 151, 8, 194, 79, 251, 3, 167, 143, 36, 34, 207, 194, 35, 241, 31, 153, 93, 213, 118, 165, 67, 233, 239, 44, 94, 211, 173, 164, 68, 17, 227, 167, 47, 26, 160, 8, 100, 199, 30, 5, 120, 21, 207, 254, 148, 219, 178, 118, 139, 188, 193, 147, 145, 215, 129, 54, 60, 16, 156, 34, 58, 21, 239, 3, 16, 37, 0, 3, 28, 36, 48, 208, 27, 0, 248, 66, 25, 42, 5, 216, 36, 80, 50, 35, 221, 203, 232, 11, 220, 245, 1, 40, 29, 239, 164, 3, 30, 255, 30, 23, 47, 35, 168, 252, 48, 254, 58, 41, 207, 254, 216, 22, 6, 28, 232, 240, 36, 237, 129, 30, 164, 5, 33, 13, 34, 190, 212, 192, 74, 8, 221, 56, 20, 35, 203, 233, 228, 186, 236, 52, 151, 187, 185, 233, 20, 156, 241, 45, 130, 211, 70, 199, 135, 65, 73, 217, 80, 134, 93, 115, 79, 139, 215, 45, 190, 212, 41, 33, 40, 231, 76, 203, 252, 182, 179, 110, 61, 13, 243, 135, 236, 129, 63, 85, 175, 5, 92, 88, 79, 144, 100, 166, 247, 255, 59, 184, 252, 149, 202, 15, 57, 181, 223, 77, 11, 56, 56, 236, 12, 222, 232, 187, 91, 65, 10, 0, 63, 29, 235, 0, 18, 5, 205, 21, 0, 69, 62, 234, 0, 1, 211, 204, 47, 207, 81, 214, 198, 38, 47, 246, 30, 37, 187, 20, 211, 63, 58, 183, 249, 5, 53, 241, 227, 17, 148, 213, 3, 77, 182, 129, 164, 170, 190, 210, 57, 19, 4, 255, 14, 159, 185, 228, 111, 193, 41, 14, 164, 254, 255, 4, 0, 0, 0, 64, 0, 0, 0, 144, 242, 255, 255, 139, 249, 255, 255, 173, 0, 0, 0, 45, 38, 0, 0, 227, 237, 255, 255, 119, 252, 255, 255, 240, 238, 255, 255, 109, 246, 255, 255, 131, 251, 255, 255, 135, 245, 255, 255, 39, 247, 255, 255, 147, 251, 255, 255, 108, 244, 255, 255, 86, 232, 255, 255, 178, 237, 255, 255, 143, 244, 255, 255, 90, 164, 254, 255, 4, 0, 0, 0, 0, 18, 0, 0, 249, 51, 254, 32, 21, 3, 42, 67, 16, 48, 207, 223, 210, 10, 238, 14, 212, 12, 3, 34, 13, 89, 230, 79, 9, 25, 245, 204, 6, 18, 217, 28, 5, 37, 211, 19, 247, 65, 221, 25, 10, 218, 53, 250, 246, 12, 28, 28, 39, 1, 226, 16, 211, 251, 28, 12, 252, 120, 233, 229, 230, 192, 229, 32, 197, 232, 201, 37, 203, 127, 218, 87, 255, 203, 252, 205, 235, 45, 200, 0, 4, 55, 52, 212, 33, 234, 22, 105, 3, 41, 36, 181, 1, 23, 247, 43, 254, 185, 46, 248, 224, 30, 29, 222, 15, 61, 248, 10, 26, 235, 238, 204, 228, 232, 12, 254, 234, 125, 201, 18, 37, 156, 197, 241, 44, 220, 231, 240, 16, 254, 60, 254, 235, 81, 23, 87, 223, 15, 253, 193, 17, 65, 31, 53, 247, 102, 207, 207, 233, 59, 244, 3, 8, 36, 223, 33, 17, 236, 192, 68, 168, 208, 1, 57, 18, 229, 236, 0, 67, 99, 1, 96, 78, 26, 64, 167, 194, 116, 172, 28, 250, 254, 28, 249, 3, 199, 233, 108, 230, 10, 2, 248, 223, 37, 47, 1, 3, 244, 69, 52, 73, 230, 78, 35, 14, 65, 180, 254, 36, 87, 197, 22, 57, 66, 237, 240, 196, 103, 15, 114, 202, 64, 200, 248, 202, 43, 179, 192, 19, 7, 223, 47, 39, 246, 223, 41, 190, 165, 239, 186, 95, 200, 234, 223, 73, 118, 35, 9, 42, 219, 240, 236, 36, 16, 43, 88, 233, 120, 56, 30, 106, 233, 87, 58, 47, 55, 34, 15, 34, 24, 65, 226, 54, 127, 30, 168, 45, 211, 39, 123, 22, 247, 87, 109, 23, 253, 37, 93, 19, 127, 181, 112, 217, 28, 215, 97, 19, 234, 52, 122, 227, 214, 33, 37, 220, 89, 245, 245, 44, 36, 19, 47, 246, 178, 226, 122, 189, 217, 252, 244, 70, 109, 0, 99, 29, 205, 62, 103, 203, 58, 191, 84, 9, 179, 204, 246, 10, 107, 16, 5, 1, 63, 186, 84, 14, 228, 35, 213, 25, 2, 67, 231, 9, 74, 176, 247, 230, 33, 34, 62, 48, 35, 245, 36, 255, 241, 210, 68, 198, 1, 49, 61, 76, 11, 57, 111, 54, 21, 48, 92, 44, 235, 52, 39, 237, 243, 22, 55, 246, 85, 12, 66, 238, 180, 24, 63, 16, 68, 29, 205, 217, 79, 255, 18, 237, 222, 234, 86, 238, 165, 0, 68, 226, 226, 180, 11, 91, 240, 14, 34, 44, 224, 93, 24, 64, 2, 67, 66, 77, 58, 225, 226, 22, 103, 22, 85, 34, 37, 210, 62, 205, 169, 23, 220, 53, 33, 195, 10, 23, 71, 230, 120, 82, 73, 66, 83, 30, 226, 35, 24, 208, 25, 32, 0, 12, 195, 33, 46, 32, 56, 68, 47, 225, 100, 13, 4, 211, 251, 240, 48, 234, 238, 188, 216, 200, 30, 238, 85, 233, 16, 23, 239, 49, 23, 239, 32, 214, 29, 58, 249, 251, 3, 18, 242, 1, 25, 239, 129, 189, 229, 12, 249, 205, 232, 55, 233, 207, 231, 222, 31, 44, 41, 5, 188, 254, 36, 39, 237, 28, 1, 249, 12, 8, 78, 28, 66, 19, 18, 233, 226, 7, 187, 223, 226, 64, 18, 31, 203, 193, 229, 192, 209, 236, 49, 25, 222, 30, 7, 34, 18, 235, 247, 222, 24, 13, 246, 199, 215, 46, 32, 198, 141, 233, 211, 5, 195, 216, 26, 83, 185, 232, 220, 74, 205, 69, 237, 81, 182, 70, 8, 210, 234, 45, 195, 65, 242, 187, 38, 224, 9, 30, 243, 11, 1, 178, 12, 54, 254, 159, 248, 212, 143, 53, 163, 73, 189, 59, 186, 58, 174, 224, 209, 40, 229, 55, 194, 212, 45, 0, 240, 243, 37, 80, 6, 226, 216, 9, 50, 223, 194, 234, 43, 190, 60, 201, 165, 254, 156, 241, 56, 81, 205, 188, 244, 37, 203, 32, 212, 213, 169, 19, 205, 48, 146, 202, 236, 55, 180, 62, 20, 58, 29, 8, 250, 209, 53, 49, 226, 242, 38, 66, 42, 64, 129, 62, 238, 175, 235, 188, 198, 255, 51, 1, 26, 40, 224, 28, 227, 33, 227, 44, 66, 39, 76, 193, 21, 39, 182, 53, 10, 228, 43, 238, 64, 21, 138, 195, 197, 3, 40, 55, 198, 224, 127, 1, 60, 35, 250, 15, 239, 203, 5, 229, 41, 24, 243, 208, 248, 215, 91, 190, 215, 254, 193, 216, 235, 236, 172, 222, 194, 43, 235, 240, 0, 220, 69, 178, 59, 184, 208, 225, 209, 199, 183, 231, 227, 15, 147, 2, 221, 211, 92, 219, 64, 231, 251, 26, 6, 25, 21, 222, 199, 193, 11, 183, 238, 254, 106, 194, 55, 247, 211, 208, 6, 8, 254, 212, 241, 25, 198, 205, 92, 237, 43, 21, 33, 29, 217, 220, 8, 51, 247, 210, 206, 47, 215, 220, 89, 61, 103, 220, 44, 246, 229, 29, 62, 67, 250, 34, 38, 216, 217, 240, 79, 8, 113, 201, 239, 250, 228, 15, 49, 61, 66, 213, 75, 81, 4, 47, 33, 7, 40, 251, 11, 51, 12, 229, 2, 50, 243, 213, 254, 242, 3, 36, 22, 73, 98, 245, 239, 12, 46, 207, 246, 57, 246, 217, 227, 231, 231, 54, 29, 230, 69, 11, 9, 244, 243, 213, 19, 36, 0, 229, 61, 250, 31, 71, 211, 247, 127, 85, 202, 62, 229, 223, 39, 201, 225, 23, 7, 7, 250, 25, 221, 4, 47, 33, 215, 71, 32, 9, 57, 58, 237, 5, 230, 247, 250, 233, 184, 234, 100, 6, 2, 54, 253, 57, 241, 34, 19, 59, 249, 30, 63, 189, 2, 189, 93, 215, 219, 232, 144, 41, 44, 234, 221, 229, 209, 32, 215, 53, 15, 49, 16, 237, 1, 47, 13, 67, 56, 246, 234, 29, 212, 234, 42, 27, 71, 194, 18, 205, 50, 0, 30, 253, 5, 184, 240, 218, 247, 14, 10, 15, 237, 223, 79, 12, 200, 184, 26, 250, 152, 224, 228, 213, 219, 39, 203, 228, 222, 245, 238, 197, 98, 58, 27, 35, 143, 21, 207, 179, 241, 182, 239, 79, 241, 74, 152, 53, 142, 37, 115, 241, 167, 80, 241, 241, 97, 3, 52, 81, 180, 230, 142, 10, 181, 34, 129, 4, 20, 30, 173, 42, 59, 4, 179, 23, 253, 175, 4, 43, 127, 207, 78, 234, 201, 205, 38, 239, 211, 184, 78, 58, 217, 105, 193, 251, 247, 72, 247, 170, 62, 105, 243, 3, 71, 81, 56, 216, 159, 57, 18, 89, 209, 252, 6, 228, 171, 79, 28, 34, 0, 46, 19, 33, 143, 246, 243, 187, 28, 182, 238, 224, 188, 26, 89, 85, 172, 241, 195, 245, 208, 182, 254, 66, 235, 91, 44, 228, 16, 22, 86, 179, 72, 74, 11, 9, 236, 16, 198, 221, 31, 44, 17, 203, 33, 40, 61, 73, 42, 50, 83, 20, 249, 2, 14, 251, 201, 63, 209, 253, 212, 241, 44, 238, 224, 34, 209, 22, 196, 68, 10, 221, 230, 58, 129, 187, 201, 207, 224, 213, 48, 234, 246, 31, 198, 37, 239, 21, 251, 206, 226, 15, 10, 250, 216, 24, 38, 33, 253, 212, 13, 244, 211, 19, 203, 46, 39, 38, 209, 70, 37, 203, 215, 223, 238, 4, 154, 42, 190, 207, 206, 43, 162, 251, 242, 38, 233, 56, 33, 244, 202, 0, 152, 62, 237, 15, 201, 221, 164, 251, 192, 18, 255, 11, 39, 213, 213, 16, 34, 54, 44, 48, 216, 22, 208, 232, 19, 22, 0, 17, 222, 227, 255, 252, 180, 220, 54, 236, 230, 53, 213, 52, 214, 252, 242, 221, 36, 241, 1, 224, 186, 4, 252, 60, 230, 3, 187, 11, 229, 234, 206, 2, 47, 22, 210, 237, 223, 48, 2, 10, 29, 220, 38, 218, 204, 220, 37, 20, 241, 255, 60, 228, 225, 49, 231, 14, 228, 228, 205, 8, 216, 241, 219, 43, 34, 254, 244, 222, 216, 47, 199, 47, 165, 242, 192, 254, 211, 25, 45, 234, 25, 47, 23, 34, 222, 42, 37, 73, 22, 45, 237, 217, 13, 44, 194, 45, 23, 233, 27, 26, 243, 7, 49, 234, 246, 51, 5, 210, 244, 227, 237, 239, 228, 23, 13, 246, 249, 221, 197, 29, 239, 48, 9, 46, 21, 254, 16, 250, 60, 215, 36, 236, 62, 40, 34, 10, 37, 36, 21, 234, 254, 236, 127, 24, 224, 15, 21, 223, 7, 215, 26, 246, 232, 12, 4, 244, 183, 229, 57, 206, 2, 49, 37, 240, 190, 254, 244, 21, 224, 215, 255, 238, 252, 7, 45, 212, 25, 217, 54, 175, 220, 175, 56, 203, 63, 197, 50, 56, 215, 185, 145, 189, 30, 237, 200, 240, 78, 56, 18, 52, 46, 31, 253, 252, 241, 216, 235, 207, 27, 16, 215, 88, 195, 63, 57, 99, 198, 17, 45, 23, 73, 78, 52, 34, 48, 198, 104, 255, 42, 238, 34, 189, 228, 166, 31, 16, 169, 169, 157, 170, 233, 15, 243, 82, 22, 17, 93, 51, 238, 240, 218, 175, 50, 72, 147, 209, 235, 37, 48, 207, 224, 219, 13, 76, 53, 38, 177, 216, 109, 78, 161, 74, 57, 197, 228, 162, 78, 184, 22, 141, 224, 46, 40, 194, 184, 236, 206, 11, 51, 182, 11, 66, 172, 55, 65, 69, 214, 19, 187, 169, 12, 21, 172, 2, 27, 220, 15, 26, 68, 198, 63, 53, 100, 210, 27, 176, 72, 208, 129, 2, 14, 68, 70, 241, 23, 208, 219, 53, 78, 195, 34, 50, 237, 11, 2, 205, 238, 245, 18, 31, 0, 38, 209, 49, 159, 222, 244, 53, 111, 41, 29, 189, 3, 24, 36, 248, 236, 226, 69, 61, 2, 191, 173, 230, 95, 239, 34, 24, 230, 213, 1, 228, 248, 69, 55, 22, 34, 55, 113, 217, 6, 40, 5, 249, 59, 27, 34, 242, 231, 12, 174, 241, 199, 36, 18, 32, 91, 62, 54, 66, 55, 220, 91, 241, 26, 231, 195, 208, 215, 253, 15, 229, 77, 221, 8, 213, 184, 64, 237, 0, 204, 215, 234, 213, 91, 76, 62, 211, 19, 219, 174, 5, 47, 25, 0, 248, 65, 25, 29, 43, 104, 207, 127, 12, 22, 73, 207, 217, 215, 231, 90, 52, 6, 242, 174, 24, 246, 213, 12, 209, 80, 12, 8, 195, 185, 235, 41, 79, 206, 243, 65, 43, 218, 62, 36, 252, 74, 21, 253, 37, 206, 203, 233, 48, 208, 213, 104, 19, 239, 227, 12, 7, 24, 6, 55, 66, 24, 53, 45, 197, 111, 28, 77, 230, 205, 56, 46, 72, 233, 232, 45, 241, 32, 62, 181, 79, 8, 13, 228, 75, 251, 5, 35, 214, 105, 199, 218, 216, 41, 28, 219, 210, 23, 225, 245, 181, 50, 228, 30, 243, 44, 183, 6, 44, 207, 63, 213, 217, 127, 27, 82, 0, 253, 201, 104, 34, 181, 36, 17, 204, 26, 22, 1, 192, 89, 208, 212, 8, 253, 10, 9, 192, 38, 20, 177, 51, 46, 5, 234, 40, 116, 228, 66, 34, 19, 193, 68, 224, 224, 35, 52, 209, 63, 41, 13, 48, 10, 47, 10, 205, 2, 17, 57, 8, 26, 50, 46, 186, 56, 220, 32, 220, 157, 248, 63, 223, 30, 237, 207, 3, 20, 216, 212, 239, 230, 37, 250, 201, 40, 44, 76, 223, 121, 240, 60, 219, 226, 44, 153, 188, 10, 223, 5, 255, 49, 84, 73, 57, 42, 15, 51, 19, 41, 241, 217, 6, 78, 38, 41, 212, 193, 231, 32, 210, 220, 5, 234, 196, 37, 12, 187, 19, 216, 17, 234, 252, 222, 236, 64, 238, 56, 230, 15, 17, 225, 222, 199, 7, 220, 11, 41, 73, 35, 254, 85, 84, 75, 25, 127, 248, 57, 54, 249, 242, 12, 224, 18, 231, 214, 49, 41, 232, 1, 218, 191, 47, 229, 225, 27, 14, 5, 203, 254, 163, 194, 24, 25, 173, 58, 221, 211, 224, 198, 242, 197, 242, 213, 1, 35, 226, 243, 220, 96, 200, 67, 5, 90, 251, 228, 210, 201, 206, 10, 15, 49, 177, 14, 88, 156, 230, 45, 254, 226, 33, 55, 249, 23, 201, 210, 12, 166, 209, 252, 214, 147, 225, 165, 51, 24, 209, 49, 36, 212, 5, 35, 3, 37, 25, 51, 201, 174, 34, 160, 75, 153, 66, 1, 15, 178, 194, 202, 226, 235, 22, 79, 247, 230, 239, 165, 21, 162, 42, 78, 43, 199, 195, 40, 61, 219, 172, 48, 154, 251, 204, 14, 180, 253, 237, 32, 220, 233, 181, 44, 21, 226, 208, 105, 181, 250, 246, 232, 11, 58, 243, 183, 157, 246, 203, 224, 214, 47, 209, 212, 228, 2, 18, 187, 246, 58, 127, 52, 233, 108, 176, 55, 82, 247, 73, 234, 199, 236, 215, 205, 192, 202, 125, 190, 5, 26, 187, 251, 251, 216, 8, 167, 181, 37, 223, 9, 191, 4, 114, 251, 80, 35, 32, 70, 81, 182, 42, 25, 27, 193, 19, 159, 227, 41, 207, 231, 226, 211, 216, 199, 245, 8, 31, 186, 18, 233, 220, 195, 16, 129, 230, 239, 44, 16, 207, 224, 27, 181, 25, 176, 26, 213, 18, 222, 0, 187, 16, 218, 224, 6, 226, 34, 29, 156, 58, 14, 208, 27, 31, 218, 61, 231, 32, 180, 253, 12, 59, 45, 234, 189, 226, 188, 5, 50, 200, 1, 239, 226, 7, 201, 52, 250, 217, 233, 207, 9, 216, 170, 38, 186, 50, 148, 24, 129, 42, 255, 48, 194, 202, 226, 18, 215, 218, 31, 14, 26, 6, 10, 231, 25, 191, 8, 0, 179, 247, 31, 220, 249, 40, 251, 14, 224, 253, 242, 26, 178, 220, 13, 247, 5, 207, 48, 240, 222, 40, 224, 41, 234, 230, 211, 58, 244, 54, 230, 19, 179, 231, 9, 249, 24, 12, 230, 214, 40, 53, 44, 12, 24, 21, 220, 242, 48, 223, 179, 39, 210, 7, 93, 18, 18, 214, 252, 21, 109, 49, 84, 50, 127, 208, 6, 213, 71, 19, 0, 187, 239, 10, 30, 14, 233, 25, 63, 183, 58, 218, 31, 205, 216, 214, 6, 32, 30, 37, 80, 46, 18, 33, 31, 212, 218, 245, 27, 251, 46, 9, 52, 28, 51, 48, 16, 13, 37, 188, 97, 253, 246, 41, 64, 11, 31, 50, 201, 190, 55, 255, 250, 201, 15, 63, 23, 4, 48, 253, 21, 217, 47, 4, 52, 209, 51, 185, 226, 33, 225, 8, 51, 1, 65, 39, 247, 46, 39, 241, 255, 214, 250, 209, 248, 213, 72, 51, 17, 33, 95, 55, 23, 205, 66, 200, 29, 30, 233, 200, 219, 14, 35, 48, 243, 46, 220, 247, 52, 212, 4, 198, 181, 219, 8, 10, 43, 11, 206, 35, 61, 205, 127, 93, 203, 76, 52, 227, 242, 163, 68, 201, 249, 227, 190, 29, 212, 216, 224, 247, 54, 180, 217, 236, 198, 246, 245, 241, 1, 25, 210, 66, 168, 189, 190, 17, 203, 1, 228, 22, 63, 82, 159, 107, 202, 84, 66, 55, 25, 51, 76, 246, 36, 77, 224, 169, 117, 228, 173, 59, 226, 66, 193, 31, 70, 12, 14, 33, 255, 34, 76, 244, 21, 48, 199, 214, 46, 223, 246, 221, 208, 203, 53, 156, 198, 221, 43, 49, 16, 47, 47, 76, 52, 71, 113, 61, 30, 194, 35, 72, 83, 197, 61, 226, 115, 75, 9, 91, 244, 248, 247, 220, 227, 196, 49, 190, 104, 188, 12, 13, 7, 227, 229, 80, 191, 85, 255, 207, 4, 248, 13, 245, 37, 214, 30, 222, 46, 21, 31, 1, 206, 2, 235, 46, 182, 220, 127, 197, 251, 231, 244, 246, 20, 221, 211, 230, 219, 216, 18, 37, 177, 4, 45, 247, 209, 235, 227, 200, 214, 242, 17, 221, 225, 16, 212, 236, 220, 253, 64, 209, 240, 41, 220, 251, 45, 19, 196, 231, 202, 36, 254, 243, 226, 26, 59, 33, 4, 4, 223, 1, 51, 240, 229, 254, 206, 33, 233, 242, 236, 212, 71, 234, 18, 228, 218, 249, 10, 235, 22, 250, 183, 243, 246, 36, 201, 25, 58, 20, 220, 17, 203, 246, 255, 45, 220, 241, 244, 12, 228, 25, 51, 19, 223, 214, 25, 31, 36, 20, 206, 35, 0, 74, 232, 38, 217, 37, 39, 30, 218, 10, 23, 2, 21, 37, 216, 34, 243, 42, 199, 254, 195, 234, 241, 29, 23, 11, 53, 224, 63, 81, 191, 37, 75, 211, 57, 42, 238, 35, 74, 5, 4, 200, 12, 12, 197, 15, 54, 251, 30, 213, 58, 227, 67, 238, 50, 252, 187, 231, 7, 20, 6, 20, 34, 225, 36, 47, 91, 201, 63, 9, 19, 29, 190, 226, 231, 222, 217, 36, 175, 70, 47, 34, 193, 76, 11, 8, 48, 76, 248, 254, 254, 57, 209, 220, 37, 204, 23, 39, 40, 227, 122, 206, 37, 192, 3, 53, 196, 208, 223, 19, 44, 228, 71, 190, 55, 8, 123, 222, 253, 203, 177, 216, 255, 40, 186, 48, 173, 18, 43, 246, 224, 34, 197, 187, 127, 19, 175, 8, 59, 247, 12, 171, 1, 15, 213, 193, 92, 188, 58, 28, 62, 206, 224, 217, 192, 59, 246, 253, 41, 37, 41, 241, 75, 214, 103, 41, 210, 28, 223, 24, 50, 48, 15, 31, 65, 46, 46, 215, 218, 22, 8, 58, 67, 68, 209, 191, 76, 30, 44, 26, 245, 195, 39, 14, 192, 202, 246, 97, 123, 247, 20, 222, 196, 3, 5, 10, 8, 34, 68, 200, 196, 196, 75, 7, 10, 255, 72, 196, 245, 234, 77, 62, 224, 216, 114, 52, 35, 84, 47, 203, 96, 7, 162, 183, 13, 12, 248, 54, 64, 247, 254, 66, 45, 46, 43, 41, 35, 34, 201, 219, 52, 189, 209, 41, 250, 41, 214, 245, 221, 86, 109, 214, 74, 71, 68, 229, 55, 193, 253, 203, 204, 208, 233, 71, 21, 196, 187, 4, 105, 217, 215, 251, 195, 71, 85, 239, 37, 239, 203, 209, 127, 243, 114, 192, 44, 161, 154, 76, 244, 191, 16, 12, 245, 220, 199, 60, 90, 76, 211, 234, 227, 209, 198, 60, 27, 20, 39, 253, 79, 183, 124, 26, 234, 26, 62, 67, 251, 6, 187, 220, 66, 225, 205, 56, 33, 53, 243, 65, 233, 32, 7, 73, 7, 199, 25, 183, 12, 31, 1, 49, 4, 44, 105, 246, 240, 217, 49, 103, 61, 218, 248, 38, 243, 29, 115, 252, 25, 26, 127, 38, 118, 235, 253, 58, 23, 68, 185, 61, 35, 32, 28, 51, 60, 223, 245, 249, 8, 54, 218, 223, 84, 65, 6, 233, 69, 73, 25, 24, 7, 198, 1, 60, 15, 66, 41, 94, 42, 64, 6, 72, 226, 41, 36, 246, 32, 23, 35, 197, 15, 205, 37, 37, 199, 53, 152, 18, 1, 72, 89, 99, 230, 173, 246, 253, 58, 29, 196, 6, 43, 3, 199, 193, 170, 18, 216, 230, 116, 243, 222, 243, 105, 209, 82, 214, 57, 227, 254, 2, 226, 26, 76, 91, 9, 45, 232, 21, 65, 0, 50, 2, 27, 17, 240, 16, 44, 38, 61, 52, 36, 247, 64, 55, 53, 32, 227, 11, 83, 61, 229, 25, 42, 243, 27, 109, 204, 226, 247, 92, 240, 41, 148, 29, 37, 75, 36, 238, 30, 30, 70, 85, 246, 12, 61, 57, 41, 254, 10, 25, 26, 237, 201, 44, 253, 245, 40, 253, 16, 21, 76, 39, 191, 1, 226, 247, 74, 33, 194, 19, 28, 36, 32, 223, 18, 206, 89, 204, 199, 196, 236, 209, 16, 255, 129, 13, 15, 14, 227, 36, 179, 205, 254, 8, 207, 10, 185, 237, 10, 16, 207, 234, 224, 33, 15, 183, 210, 195, 74, 31, 34, 223, 229, 236, 17, 225, 239, 228, 3, 29, 197, 253, 227, 210, 243, 220, 201, 223, 221, 226, 230, 185, 172, 62, 186, 44, 160, 23, 220, 9, 100, 104, 47, 101, 253, 19, 0, 242, 153, 34, 31, 210, 116, 13, 56, 13, 246, 89, 84, 111, 75, 231, 105, 67, 233, 231, 231, 60, 24, 53, 177, 223, 46, 114, 37, 36, 232, 59, 92, 25, 216, 59, 54, 15, 127, 49, 26, 212, 219, 176, 232, 11, 22, 3, 36, 234, 157, 201, 195, 10, 52, 197, 249, 224, 254, 177, 29, 38, 251, 246, 44, 253, 224, 228, 66, 238, 203, 17, 104, 241, 192, 198, 15, 229, 16, 238, 31, 233, 153, 207, 71, 232, 74, 2, 24, 5, 225, 6, 199, 197, 230, 173, 181, 18, 202, 56, 22, 8, 20, 2, 210, 0, 8, 230, 4, 172, 211, 208, 197, 183, 166, 197, 215, 29, 214, 171, 236, 209, 243, 246, 90, 7, 20, 0, 226, 64, 183, 205, 233, 101, 147, 202, 80, 231, 226, 16, 106, 199, 79, 229, 64, 204, 89, 59, 253, 204, 51, 208, 74, 226, 19, 12, 48, 39, 127, 42, 28, 243, 7, 13, 29, 212, 242, 252, 3, 209, 34, 25, 209, 214, 80, 236, 17, 198, 219, 54, 20, 213, 218, 13, 93, 42, 14, 213, 118, 254, 13, 233, 111, 20, 22, 21, 244, 241, 21, 203, 115, 227, 1, 214, 111, 41, 127, 236, 222, 18, 99, 23, 12, 27, 52, 13, 51, 254, 28, 54, 7, 250, 85, 44, 1, 51, 10, 207, 231, 229, 222, 59, 72, 59, 229, 61, 82, 210, 66, 249, 84, 14, 78, 239, 222, 21, 221, 61, 43, 250, 27, 252, 87, 0, 78, 16, 235, 22, 60, 40, 254, 29, 44, 254, 48, 32, 219, 234, 64, 34, 103, 8, 209, 253, 16, 206, 232, 21, 42, 253, 75, 205, 28, 201, 68, 203, 43, 34, 242, 199, 229, 4, 219, 207, 65, 233, 92, 47, 252, 170, 255, 235, 50, 60, 201, 14, 243, 31, 2, 190, 177, 211, 116, 24, 243, 254, 58, 11, 32, 34, 236, 241, 178, 217, 49, 16, 174, 159, 117, 2, 79, 6, 99, 224, 127, 201, 7, 14, 244, 4, 27, 236, 229, 152, 51, 253, 54, 175, 253, 4, 80, 195, 184, 238, 192, 63, 224, 216, 188, 195, 81, 68, 58, 183, 249, 14, 94, 220, 235, 15, 178, 220, 64, 26, 164, 200, 67, 223, 218, 198, 3, 239, 33, 229, 250, 6, 200, 246, 229, 173, 213, 244, 13, 71, 28, 217, 87, 209, 32, 204, 138, 247, 221, 246, 58, 242, 222, 204, 20, 77, 221, 208, 32, 53, 48, 55, 207, 20, 177, 249, 9, 17, 182, 38, 29, 210, 3, 7, 245, 42, 13, 44, 12, 38, 75, 34, 13, 2, 19, 5, 214, 26, 223, 1, 52, 244, 19, 11, 246, 230, 207, 47, 37, 2, 66, 30, 38, 230, 4, 4, 59, 232, 248, 217, 7, 220, 16, 243, 50, 218, 77, 252, 34, 27, 21, 42, 219, 203, 243, 12, 20, 236, 127, 55, 225, 24, 13, 233, 219, 202, 210, 213, 42, 18, 223, 24, 217, 24, 37, 242, 10, 19, 221, 223, 6, 13, 249, 242, 62, 255, 251, 47, 34, 247, 255, 36, 40, 39, 19, 23, 44, 250, 220, 64, 32, 21, 61, 17, 65, 7, 19, 245, 7, 222, 86, 232, 51, 250, 7, 12, 247, 23, 6, 58, 238, 27, 92, 244, 25, 42, 29, 40, 245, 209, 9, 9, 53, 215, 25, 58, 25, 6, 91, 248, 216, 244, 38, 220, 221, 18, 233, 191, 41, 27, 218, 11, 116, 221, 67, 241, 241, 6, 10, 227, 122, 253, 9, 195, 35, 193, 79, 92, 0, 8, 30, 212, 192, 10, 10, 243, 127, 214, 38, 196, 0, 32, 104, 250, 201, 247, 14, 239, 227, 63, 6, 202, 14, 43, 245, 30, 50, 229, 35, 28, 18, 222, 235, 43, 236, 251, 237, 8, 118, 230, 47, 196, 45, 255, 53, 254, 173, 210, 33, 233, 8, 64, 169, 66, 66, 28, 240, 35, 17, 14, 99, 30, 158, 243, 42, 20, 217, 245, 237, 225, 69, 215, 10, 237, 248, 34, 76, 33, 68, 79, 51, 181, 219, 206, 15, 216, 101, 40, 242, 40, 226, 72, 77, 59, 157, 15, 30, 13, 243, 248, 20, 29, 39, 26, 5, 27, 26, 255, 37, 182, 193, 46, 238, 205, 73, 39, 4, 81, 217, 45, 45, 69, 97, 53, 242, 36, 104, 59, 31, 9, 231, 0, 84, 75, 218, 248, 47, 91, 74, 23, 45, 65, 250, 47, 242, 23, 20, 38, 18, 93, 53, 224, 33, 52, 240, 44, 88, 45, 55, 212, 241, 22, 80, 235, 48, 215, 31, 246, 55, 219, 15, 219, 44, 224, 39, 254, 178, 8, 37, 8, 240, 13, 56, 201, 245, 202, 249, 220, 227, 20, 249, 226, 174, 216, 221, 18, 24, 29, 38, 44, 2, 10, 61, 233, 32, 16, 214, 56, 227, 42, 204, 244, 183, 171, 240, 246, 235, 207, 72, 30, 38, 42, 38, 184, 138, 1, 205, 15, 8, 25, 41, 25, 76, 162, 242, 184, 11, 18, 170, 35, 129, 196, 219, 210, 201, 234, 22, 216, 27, 6, 203, 43, 250, 194, 47, 250, 154, 26, 0, 243, 184, 18, 192, 71, 38, 27, 239, 30, 243, 64, 48, 32, 129, 236, 43, 200, 22, 235, 243, 28, 16, 81, 0, 37, 15, 252, 78, 226, 155, 243, 242, 48, 53, 253, 167, 32, 46, 26, 14, 74, 244, 192, 12, 243, 13, 226, 10, 6, 54, 221, 242, 249, 193, 221, 28, 2, 36, 35, 247, 213, 183, 65, 214, 240, 24, 67, 198, 224, 19, 224, 11, 39, 5, 198, 62, 48, 169, 212, 32, 1, 13, 240, 208, 224, 243, 216, 177, 245, 29, 12, 204, 53, 219, 42, 65, 9, 251, 33, 236, 38, 40, 41, 232, 232, 29, 19, 79, 241, 242, 5, 252, 8, 33, 248, 200, 217, 63, 6, 229, 196, 54, 201, 5, 212, 221, 255, 3, 19, 231, 199, 197, 199, 214, 14, 25, 232, 225, 214, 14, 185, 223, 10, 195, 252, 184, 32, 238, 55, 185, 52, 56, 18, 208, 250, 6, 249, 179, 206, 89, 219, 149, 67, 228, 11, 159, 37, 180, 255, 195, 37, 14, 243, 210, 69, 254, 55, 179, 193, 232, 219, 216, 212, 26, 241, 105, 3, 2, 23, 187, 68, 209, 192, 81, 25, 58, 56, 174, 83, 59, 74, 76, 20, 248, 230, 147, 20, 34, 201, 79, 239, 234, 226, 181, 17, 56, 248, 253, 214, 46, 203, 251, 0, 224, 43, 52, 181, 26, 223, 16, 52, 226, 185, 124, 243, 241, 219, 184, 19, 26, 218, 191, 12, 255, 39, 153, 63, 64, 25, 214, 173, 121, 24, 129, 253, 60, 30, 90, 50, 234, 216, 217, 246, 195, 21, 56, 37, 16, 210, 203, 243, 10, 218, 207, 208, 93, 19, 216, 228, 209, 210, 62, 218, 169, 231, 7, 181, 6, 50, 50, 252, 72, 29, 216, 55, 32, 38, 17, 230, 215, 242, 19, 54, 246, 18, 228, 18, 47, 8, 231, 28, 237, 249, 245, 225, 26, 252, 69, 223, 183, 206, 192, 175, 222, 191, 248, 194, 232, 0, 253, 13, 250, 252, 112, 215, 196, 16, 244, 248, 42, 42, 0, 29, 114, 60, 57, 238, 244, 253, 218, 38, 64, 49, 102, 99, 28, 46, 2, 27, 46, 31, 14, 47, 37, 255, 34, 246, 9, 12, 72, 90, 16, 234, 211, 94, 7, 247, 218, 247, 127, 38, 81, 26, 208, 46, 5, 30, 218, 24, 54, 4, 2, 218, 51, 238, 30, 201, 1, 249, 55, 233, 88, 246, 36, 246, 25, 82, 232, 6, 77, 46, 38, 15, 28, 246, 65, 233, 32, 88, 187, 238, 209, 83, 251, 39, 29, 220, 96, 21, 12, 42, 235, 228, 79, 102, 182, 254, 255, 4, 0, 0, 0, 128, 0, 0, 0, 127, 243, 255, 255, 231, 247, 255, 255, 131, 231, 255, 255, 213, 231, 255, 255, 135, 34, 0, 0, 23, 24, 0, 0, 137, 252, 255, 255, 254, 16, 0, 0, 194, 27, 0, 0, 62, 252, 255, 255, 124, 232, 255, 255, 50, 248, 255, 255, 71, 247, 255, 255, 112, 24, 0, 0, 249, 245, 255, 255, 20, 16, 0, 0, 123, 233, 255, 255, 121, 238, 255, 255, 185, 8, 0, 0, 35, 249, 255, 255, 53, 231, 255, 255, 246, 232, 255, 255, 37, 1, 0, 0, 203, 244, 255, 255, 154, 245, 255, 255, 96, 7, 0, 0, 5, 249, 255, 255, 172, 240, 255, 255, 115, 243, 255, 255, 140, 241, 255, 255, 136, 248, 255, 255, 104, 224, 255, 255, 242, 182, 254, 255, 4, 0, 0, 0, 0, 36, 0, 0, 42, 210, 23, 72, 53, 83, 19, 5, 219, 247, 47, 17, 103, 239, 233, 245, 30, 230, 202, 79, 67, 54, 235, 12, 1, 227, 223, 3, 34, 202, 74, 213, 4, 40, 69, 35, 11, 245, 195, 228, 47, 221, 71, 58, 30, 6, 24, 12, 1, 248, 11, 29, 59, 84, 251, 25, 59, 235, 195, 34, 60, 222, 1, 243, 16, 49, 21, 56, 231, 26, 71, 234, 28, 6, 82, 42, 85, 230, 231, 48, 37, 24, 64, 76, 65, 50, 55, 71, 230, 0, 218, 245, 9, 42, 244, 228, 107, 12, 202, 220, 19, 32, 223, 252, 255, 204, 2, 30, 66, 209, 3, 15, 191, 182, 179, 31, 32, 249, 192, 239, 244, 11, 241, 230, 233, 8, 222, 199, 72, 209, 15, 80, 215, 26, 42, 220, 13, 43, 54, 226, 72, 193, 55, 242, 187, 242, 219, 69, 252, 218, 2, 4, 190, 204, 207, 206, 70, 219, 9, 14, 83, 211, 62, 53, 231, 0, 64, 243, 245, 238, 74, 53, 24, 3, 33, 13, 9, 208, 233, 100, 62, 242, 53, 12, 243, 246, 224, 238, 32, 55, 222, 235, 32, 227, 248, 253, 16, 10, 213, 33, 236, 224, 44, 222, 240, 29, 205, 31, 210, 219, 2, 9, 252, 27, 4, 229, 220, 222, 142, 247, 217, 246, 59, 34, 112, 9, 212, 197, 225, 41, 11, 226, 200, 189, 243, 236, 11, 215, 245, 1, 0, 209, 215, 61, 35, 198, 18, 16, 0, 58, 129, 7, 43, 217, 43, 2, 41, 2, 249, 255, 7, 39, 39, 227, 18, 249, 118, 248, 240, 227, 50, 223, 13, 231, 239, 70, 225, 2, 251, 21, 6, 35, 245, 63, 213, 214, 10, 223, 13, 210, 218, 24, 176, 182, 234, 198, 76, 0, 252, 211, 20, 153, 5, 224, 17, 69, 61, 243, 54, 243, 250, 45, 245, 77, 89, 216, 206, 81, 99, 230, 240, 172, 16, 239, 19, 29, 193, 165, 5, 66, 187, 45, 250, 219, 71, 192, 238, 210, 37, 69, 232, 22, 208, 197, 169, 193, 56, 208, 179, 68, 206, 254, 41, 174, 157, 46, 70, 38, 254, 14, 234, 164, 162, 156, 38, 33, 225, 61, 42, 26, 43, 236, 216, 32, 15, 203, 152, 164, 171, 39, 184, 55, 12, 218, 186, 207, 52, 8, 44, 39, 54, 243, 227, 44, 48, 212, 29, 166, 228, 10, 238, 176, 25, 9, 27, 8, 83, 254, 52, 48, 231, 0, 250, 74, 11, 192, 45, 24, 22, 254, 193, 56, 22, 237, 233, 29, 48, 172, 195, 187, 167, 169, 137, 31, 171, 222, 146, 31, 189, 92, 141, 221, 13, 47, 10, 244, 178, 129, 209, 176, 175, 49, 54, 166, 145, 255, 174, 145, 49, 175, 138, 16, 45, 205, 184, 41, 184, 168, 214, 1, 183, 196, 221, 247, 253, 34, 208, 12, 188, 219, 176, 239, 4, 23, 66, 74, 88, 246, 230, 232, 5, 233, 183, 255, 176, 196, 9, 247, 207, 204, 185, 182, 28, 67, 183, 184, 172, 1, 213, 210, 65, 63, 57, 75, 37, 150, 212, 43, 90, 147, 44, 165, 17, 150, 244, 59, 63, 218, 32, 237, 1, 194, 3, 20, 254, 183, 184, 196, 223, 192, 222, 175, 202, 192, 170, 56, 241, 6, 30, 164, 81, 215, 231, 255, 5, 210, 13, 225, 45, 179, 243, 100, 57, 157, 247, 194, 223, 57, 7, 171, 211, 29, 35, 16, 29, 88, 192, 209, 79, 81, 164, 244, 252, 11, 42, 219, 174, 129, 87, 167, 183, 31, 150, 206, 9, 248, 252, 252, 1, 25, 204, 44, 29, 152, 19, 170, 231, 178, 205, 139, 251, 100, 245, 76, 151, 214, 199, 183, 43, 53, 85, 176, 4, 210, 34, 182, 66, 215, 174, 59, 181, 161, 60, 79, 5, 7, 164, 196, 29, 180, 55, 230, 189, 86, 177, 168, 154, 1, 223, 193, 247, 221, 35, 160, 189, 154, 69, 28, 203, 43, 83, 50, 20, 56, 157, 155, 170, 93, 18, 67, 170, 146, 229, 40, 158, 0, 183, 194, 202, 69, 49, 218, 241, 192, 245, 18, 11, 180, 238, 255, 206, 83, 96, 49, 95, 154, 190, 83, 240, 36, 25, 238, 210, 203, 181, 252, 240, 166, 99, 249, 63, 214, 188, 86, 145, 171, 209, 221, 195, 33, 78, 11, 248, 206, 97, 21, 8, 71, 227, 96, 144, 164, 12, 232, 15, 162, 71, 90, 42, 48, 146, 151, 171, 27, 80, 188, 42, 76, 207, 144, 14, 86, 254, 54, 182, 31, 19, 6, 4, 103, 223, 161, 166, 201, 198, 160, 201, 44, 157, 77, 246, 50, 227, 24, 190, 97, 202, 26, 64, 178, 10, 45, 251, 140, 94, 21, 68, 204, 141, 40, 12, 86, 149, 175, 140, 95, 61, 250, 235, 15, 148, 29, 211, 72, 64, 63, 185, 199, 85, 183, 21, 24, 227, 29, 17, 26, 31, 67, 50, 185, 99, 215, 176, 25, 67, 240, 172, 244, 215, 212, 212, 200, 46, 209, 203, 65, 232, 191, 232, 138, 4, 159, 36, 255, 90, 76, 39, 78, 246, 156, 9, 187, 211, 24, 59, 195, 50, 168, 208, 48, 7, 28, 45, 161, 89, 4, 237, 209, 31, 212, 17, 246, 248, 17, 192, 254, 17, 43, 33, 27, 18, 9, 23, 75, 217, 37, 8, 24, 246, 225, 51, 249, 15, 3, 74, 241, 78, 15, 18, 30, 235, 221, 18, 30, 229, 231, 15, 22, 187, 242, 39, 231, 249, 226, 12, 230, 25, 248, 221, 18, 29, 253, 255, 236, 8, 226, 230, 242, 31, 224, 238, 224, 14, 251, 22, 200, 23, 224, 50, 37, 6, 52, 41, 254, 40, 221, 26, 103, 35, 220, 40, 23, 232, 167, 236, 16, 216, 230, 43, 18, 127, 83, 38, 245, 41, 204, 196, 229, 221, 40, 188, 83, 70, 2, 33, 217, 0, 67, 28, 97, 47, 11, 220, 10, 34, 181, 245, 233, 233, 20, 73, 43, 85, 49, 45, 238, 217, 228, 247, 2, 240, 204, 8, 48, 241, 49, 215, 214, 252, 19, 251, 46, 238, 37, 224, 6, 16, 12, 28, 7, 237, 26, 50, 12, 34, 44, 26, 32, 18, 255, 20, 229, 203, 251, 5, 22, 55, 246, 12, 235, 25, 23, 215, 83, 48, 37, 247, 224, 34, 192, 30, 239, 235, 254, 0, 33, 67, 31, 253, 51, 5, 199, 194, 0, 15, 255, 17, 238, 218, 195, 43, 47, 5, 255, 225, 36, 26, 33, 174, 6, 18, 4, 52, 204, 206, 24, 45, 29, 51, 42, 9, 222, 211, 157, 196, 12, 209, 12, 50, 6, 37, 219, 234, 254, 31, 56, 229, 23, 43, 14, 195, 246, 58, 226, 234, 13, 238, 242, 41, 245, 243, 51, 28, 31, 47, 203, 19, 239, 14, 236, 15, 0, 41, 246, 205, 244, 18, 21, 39, 232, 67, 33, 201, 234, 23, 189, 234, 31, 28, 212, 16, 249, 66, 4, 29, 252, 3, 9, 203, 39, 230, 238, 65, 208, 4, 67, 233, 214, 172, 251, 166, 211, 37, 9, 46, 82, 239, 248, 201, 249, 7, 25, 19, 233, 20, 240, 38, 83, 212, 211, 224, 68, 228, 3, 246, 7, 35, 53, 22, 212, 243, 46, 9, 217, 86, 10, 79, 108, 23, 208, 25, 233, 106, 67, 197, 247, 8, 60, 42, 53, 74, 198, 227, 73, 37, 63, 36, 18, 72, 17, 253, 254, 254, 84, 4, 205, 33, 38, 54, 24, 0, 169, 31, 220, 78, 221, 255, 4, 65, 164, 205, 0, 230, 79, 28, 188, 250, 203, 26, 222, 238, 64, 216, 191, 228, 150, 199, 252, 188, 210, 219, 12, 196, 61, 192, 245, 25, 30, 202, 143, 51, 248, 16, 21, 237, 211, 222, 232, 210, 7, 54, 158, 26, 105, 20, 22, 245, 142, 238, 238, 26, 250, 26, 72, 201, 58, 147, 40, 80, 21, 197, 196, 92, 244, 69, 85, 61, 180, 245, 251, 223, 233, 119, 54, 10, 14, 5, 71, 31, 29, 252, 33, 80, 245, 38, 25, 244, 248, 15, 239, 68, 34, 6, 61, 78, 54, 20, 158, 234, 79, 252, 179, 31, 245, 24, 230, 198, 253, 246, 212, 224, 77, 230, 22, 160, 225, 153, 183, 246, 18, 245, 9, 205, 237, 229, 247, 22, 191, 65, 227, 229, 9, 225, 205, 3, 253, 10, 143, 247, 235, 204, 236, 158, 230, 40, 235, 228, 209, 167, 209, 12, 103, 129, 1, 235, 185, 143, 194, 69, 34, 91, 5, 246, 13, 208, 21, 248, 240, 28, 20, 235, 196, 22, 11, 23, 192, 222, 208, 228, 21, 201, 30, 34, 69, 143, 99, 232, 213, 228, 53, 87, 20, 8, 62, 219, 9, 192, 236, 190, 17, 250, 27, 81, 18, 230, 37, 246, 57, 19, 62, 53, 20, 200, 245, 0, 234, 34, 34, 9, 222, 6, 224, 27, 21, 80, 64, 206, 202, 237, 237, 26, 34, 107, 54, 50, 61, 12, 42, 9, 3, 227, 205, 14, 58, 208, 13, 252, 16, 41, 228, 6, 19, 245, 203, 241, 36, 193, 35, 36, 42, 14, 36, 214, 1, 242, 241, 212, 191, 47, 248, 30, 20, 220, 44, 40, 40, 31, 28, 203, 235, 209, 56, 75, 57, 238, 242, 103, 20, 206, 39, 216, 30, 1, 254, 226, 10, 34, 33, 75, 37, 198, 41, 244, 31, 230, 90, 62, 65, 223, 44, 42, 215, 7, 235, 56, 235, 254, 43, 245, 58, 193, 235, 41, 23, 224, 51, 25, 32, 20, 235, 246, 213, 55, 224, 22, 66, 210, 59, 70, 81, 45, 230, 28, 214, 13, 210, 50, 29, 100, 12, 89, 39, 240, 229, 255, 200, 237, 242, 225, 30, 58, 233, 33, 193, 13, 4, 208, 229, 237, 65, 238, 219, 5, 17, 5, 236, 10, 52, 70, 18, 2, 253, 127, 27, 224, 11, 207, 25, 25, 236, 221, 243, 7, 232, 49, 236, 223, 243, 245, 15, 214, 48, 38, 54, 204, 58, 202, 202, 211, 5, 32, 29, 60, 10, 36, 252, 46, 51, 220, 1, 41, 210, 186, 255, 6, 49, 66, 2, 8, 219, 236, 226, 32, 96, 74, 230, 24, 13, 1, 199, 222, 218, 23, 226, 249, 236, 93, 228, 16, 35, 16, 195, 180, 233, 252, 219, 112, 205, 77, 69, 231, 12, 255, 29, 3, 228, 234, 35, 191, 219, 13, 81, 251, 242, 234, 222, 255, 201, 251, 58, 6, 22, 230, 121, 64, 7, 13, 234, 20, 90, 21, 221, 40, 235, 31, 82, 216, 51, 239, 32, 18, 8, 75, 252, 226, 53, 60, 21, 2, 8, 55, 213, 2, 238, 202, 76, 60, 3, 232, 222, 24, 225, 254, 229, 243, 39, 50, 243, 6, 114, 13, 47, 240, 244, 244, 250, 38, 34, 22, 55, 15, 22, 252, 253, 40, 247, 206, 58, 61, 56, 59, 215, 105, 49, 230, 6, 253, 39, 240, 238, 218, 7, 244, 17, 43, 27, 221, 200, 240, 245, 232, 68, 234, 41, 98, 211, 234, 231, 18, 64, 37, 19, 215, 203, 16, 19, 42, 30, 236, 18, 206, 28, 55, 109, 255, 212, 43, 254, 209, 203, 196, 201, 236, 23, 5, 216, 31, 251, 238, 8, 56, 86, 249, 46, 31, 246, 120, 53, 19, 40, 15, 219, 19, 190, 214, 21, 186, 220, 12, 197, 203, 193, 179, 28, 46, 227, 5, 18, 254, 157, 243, 237, 23, 85, 239, 36, 217, 9, 33, 229, 8, 200, 55, 194, 7, 182, 11, 87, 74, 60, 64, 53, 162, 196, 205, 176, 49, 48, 41, 217, 64, 199, 238, 20, 5, 81, 250, 224, 254, 251, 21, 5, 208, 217, 19, 208, 44, 240, 4, 127, 21, 55, 194, 169, 22, 139, 230, 0, 18, 43, 32, 4, 79, 236, 17, 2, 234, 253, 21, 210, 191, 17, 39, 75, 51, 51, 19, 206, 198, 35, 211, 40, 55, 58, 77, 64, 27, 225, 210, 226, 226, 78, 45, 56, 83, 210, 39, 217, 228, 51, 232, 22, 194, 238, 253, 187, 17, 24, 222, 200, 217, 23, 206, 4, 38, 28, 222, 22, 196, 5, 10, 71, 35, 242, 10, 243, 9, 70, 32, 218, 53, 14, 189, 212, 249, 43, 28, 232, 20, 21, 224, 8, 217, 68, 244, 164, 8, 43, 210, 226, 1, 197, 216, 203, 254, 232, 233, 243, 197, 5, 26, 196, 233, 231, 21, 45, 13, 6, 46, 252, 238, 231, 11, 14, 62, 68, 14, 217, 23, 225, 215, 215, 254, 1, 63, 46, 191, 38, 12, 249, 189, 60, 208, 25, 252, 222, 237, 0, 21, 10, 238, 218, 201, 35, 19, 16, 235, 50, 234, 206, 205, 207, 171, 4, 222, 245, 242, 46, 198, 242, 220, 239, 250, 27, 2, 28, 207, 244, 216, 209, 220, 249, 15, 7, 249, 20, 239, 28, 10, 195, 208, 204, 32, 23, 41, 39, 251, 216, 243, 195, 59, 242, 255, 252, 57, 3, 237, 65, 28, 247, 202, 16, 18, 45, 248, 5, 199, 233, 6, 17, 0, 62, 215, 195, 75, 25, 220, 72, 229, 16, 186, 20, 55, 71, 237, 60, 3, 37, 49, 223, 45, 0, 1, 28, 209, 17, 209, 57, 253, 168, 2, 56, 250, 71, 73, 205, 234, 32, 236, 248, 29, 220, 204, 243, 52, 47, 28, 45, 19, 206, 202, 4, 192, 46, 247, 204, 220, 182, 236, 10, 223, 17, 15, 184, 4, 242, 32, 242, 239, 3, 4, 90, 191, 30, 67, 180, 235, 51, 233, 229, 4, 198, 203, 28, 33, 13, 52, 46, 216, 50, 21, 251, 239, 81, 221, 208, 14, 192, 216, 227, 29, 63, 38, 55, 209, 231, 29, 200, 96, 33, 244, 191, 35, 181, 10, 49, 232, 194, 225, 7, 45, 56, 110, 238, 53, 127, 214, 26, 236, 29, 9, 208, 93, 57, 3, 101, 219, 49, 41, 222, 42, 78, 220, 36, 253, 34, 6, 8, 240, 36, 83, 59, 21, 41, 54, 5, 32, 225, 207, 34, 246, 12, 33, 4, 57, 70, 114, 49, 244, 188, 246, 241, 246, 93, 4, 67, 218, 32, 255, 13, 66, 24, 54, 233, 228, 11, 4, 46, 24, 215, 248, 248, 44, 236, 2, 250, 12, 18, 88, 55, 208, 193, 222, 158, 37, 79, 54, 13, 238, 194, 220, 55, 15, 108, 21, 248, 221, 21, 1, 14, 25, 3, 235, 16, 251, 38, 226, 249, 75, 62, 117, 127, 13, 216, 9, 6, 24, 62, 9, 14, 254, 197, 0, 76, 252, 9, 57, 11, 222, 226, 20, 47, 223, 41, 31, 219, 17, 199, 190, 42, 213, 43, 80, 66, 206, 207, 250, 169, 85, 102, 38, 41, 0, 202, 186, 23, 21, 54, 31, 38, 252, 11, 204, 223, 32, 52, 251, 209, 18, 0, 225, 6, 243, 254, 252, 80, 172, 207, 250, 159, 91, 36, 40, 223, 251, 33, 198, 18, 226, 87, 223, 241, 13, 230, 1, 1, 248, 18, 53, 41, 218, 251, 6, 249, 13, 11, 226, 12, 32, 34, 244, 25, 70, 44, 241, 244, 198, 59, 14, 248, 247, 66, 42, 241, 228, 235, 187, 248, 25, 23, 30, 30, 237, 66, 251, 237, 239, 200, 236, 217, 10, 36, 196, 192, 225, 55, 40, 208, 190, 238, 194, 228, 6, 88, 214, 203, 10, 25, 208, 222, 243, 26, 63, 223, 210, 238, 240, 237, 216, 247, 12, 13, 218, 237, 198, 190, 219, 229, 15, 240, 216, 254, 244, 16, 221, 18, 243, 220, 193, 208, 15, 6, 1, 32, 13, 26, 202, 7, 221, 218, 209, 224, 12, 8, 251, 95, 214, 33, 45, 224, 249, 254, 239, 191, 29, 0, 251, 124, 93, 0, 51, 230, 29, 51, 43, 237, 27, 26, 213, 242, 39, 89, 71, 68, 96, 41, 245, 217, 220, 246, 31, 66, 47, 202, 241, 235, 171, 63, 215, 72, 244, 212, 34, 59, 8, 29, 197, 213, 246, 245, 12, 4, 245, 241, 68, 104, 102, 97, 219, 18, 3, 187, 100, 51, 83, 211, 224, 209, 215, 204, 201, 69, 67, 255, 44, 251, 41, 223, 64, 208, 221, 233, 31, 33, 34, 240, 214, 1, 70, 61, 160, 229, 182, 178, 249, 40, 195, 185, 11, 240, 174, 40, 227, 103, 49, 224, 18, 209, 251, 46, 53, 70, 40, 42, 171, 26, 250, 13, 216, 36, 76, 9, 163, 32, 172, 165, 46, 105, 241, 251, 0, 230, 40, 17, 15, 84, 251, 246, 217, 192, 221, 202, 246, 39, 80, 226, 21, 14, 189, 61, 11, 251, 86, 0, 189, 54, 210, 205, 52, 253, 53, 9, 194, 146, 242, 31, 216, 108, 240, 12, 24, 218, 20, 245, 100, 56, 232, 2, 182, 244, 194, 254, 4, 255, 239, 83, 210, 83, 4, 81, 14, 254, 27, 211, 55, 23, 79, 163, 24, 65, 51, 234, 221, 182, 245, 18, 32, 20, 17, 178, 205, 34, 217, 66, 172, 208, 231, 219, 224, 23, 184, 245, 25, 11, 253, 213, 25, 70, 107, 222, 8, 88, 70, 174, 35, 238, 250, 12, 92, 18, 30, 39, 9, 74, 68, 14, 176, 194, 13, 52, 88, 127, 210, 102, 233, 3, 20, 206, 206, 19, 46, 235, 200, 93, 137, 46, 246, 236, 70, 192, 43, 195, 3, 48, 148, 238, 65, 179, 39, 205, 25, 47, 78, 110, 159, 54, 35, 178, 162, 230, 199, 188, 163, 180, 211, 246, 14, 236, 8, 211, 242, 73, 162, 152, 147, 0, 236, 220, 42, 5, 103, 58, 56, 162, 147, 198, 94, 179, 190, 232, 99, 143, 22, 38, 170, 166, 229, 163, 76, 146, 48, 180, 62, 67, 11, 224, 220, 68, 62, 91, 46, 241, 77, 173, 232, 157, 196, 90, 244, 223, 222, 73, 50, 136, 65, 48, 164, 208, 221, 244, 177, 53, 3, 53, 176, 203, 39, 193, 213, 204, 208, 22, 78, 173, 172, 129, 241, 239, 95, 198, 65, 28, 153, 20, 46, 53, 152, 178, 253, 95, 213, 165, 24, 54, 155, 6, 200, 38, 68, 165, 223, 220, 63, 64, 189, 64, 53, 32, 155, 241, 254, 145, 220, 17, 61, 118, 103, 216, 235, 70, 239, 57, 47, 140, 172, 221, 166, 153, 238, 151, 220, 107, 10, 16, 213, 206, 26, 221, 70, 135, 35, 225, 226, 15, 86, 23, 18, 99, 35, 202, 215, 185, 98, 52, 30, 145, 153, 200, 168, 189, 18, 57, 158, 242, 152, 20, 245, 60, 209, 176, 57, 212, 220, 213, 45, 172, 169, 224, 81, 247, 26, 9, 28, 202, 51, 17, 58, 190, 73, 142, 205, 198, 226, 164, 72, 153, 55, 206, 57, 240, 170, 197, 57, 12, 57, 77, 232, 33, 205, 210, 87, 248, 156, 49, 169, 10, 163, 196, 61, 17, 171, 81, 140, 61, 172, 207, 78, 6, 248, 248, 194, 202, 46, 235, 9, 15, 40, 17, 166, 204, 55, 62, 249, 217, 217, 32, 201, 15, 213, 75, 217, 221, 96, 252, 178, 61, 78, 21, 191, 26, 47, 237, 222, 144, 203, 65, 166, 47, 57, 9, 24, 146, 148, 222, 207, 147, 202, 146, 87, 193, 215, 48, 184, 82, 205, 231, 194, 189, 29, 159, 203, 70, 211, 181, 238, 171, 220, 2, 7, 12, 54, 5, 220, 233, 198, 166, 37, 42, 3, 21, 86, 25, 241, 33, 31, 182, 219, 18, 196, 203, 60, 15, 35, 127, 182, 196, 43, 164, 0, 204, 8, 13, 7, 241, 227, 19, 252, 190, 46, 33, 191, 202, 3, 42, 95, 248, 224, 215, 247, 209, 26, 28, 63, 67, 47, 63, 215, 47, 82, 25, 231, 243, 74, 42, 248, 49, 65, 217, 242, 44, 109, 42, 237, 44, 7, 11, 198, 200, 186, 81, 250, 150, 218, 9, 8, 224, 17, 239, 75, 2, 161, 85, 247, 209, 212, 159, 180, 3, 233, 76, 204, 240, 159, 230, 237, 205, 80, 202, 49, 245, 171, 81, 2, 161, 250, 238, 62, 131, 33, 98, 58, 175, 226, 199, 226, 181, 30, 247, 194, 9, 249, 87, 18, 34, 41, 49, 202, 155, 85, 224, 103, 74, 19, 240, 173, 30, 38, 46, 117, 188, 21, 79, 34, 184, 43, 239, 212, 204, 231, 29, 201, 100, 24, 65, 184, 61, 92, 18, 244, 253, 88, 255, 246, 171, 219, 48, 37, 58, 196, 27, 241, 225, 12, 241, 3, 51, 20, 92, 87, 205, 250, 240, 233, 239, 3, 102, 202, 66, 155, 39, 111, 62, 77, 72, 20, 31, 212, 23, 207, 23, 3, 34, 12, 72, 187, 206, 255, 39, 189, 9, 20, 1, 218, 25, 187, 227, 231, 244, 6, 46, 169, 36, 216, 63, 246, 89, 90, 58, 235, 14, 244, 245, 46, 200, 16, 248, 243, 8, 210, 65, 197, 111, 57, 169, 213, 226, 229, 55, 54, 221, 205, 93, 196, 192, 71, 21, 111, 239, 234, 53, 231, 238, 220, 45, 7, 3, 20, 16, 11, 83, 221, 230, 28, 236, 239, 55, 249, 250, 229, 210, 34, 245, 8, 235, 0, 218, 238, 12, 66, 241, 234, 1, 246, 193, 232, 251, 16, 252, 253, 20, 247, 5, 241, 233, 21, 26, 233, 47, 13, 234, 224, 229, 10, 21, 197, 2, 45, 224, 25, 7, 5, 242, 254, 29, 23, 226, 230, 45, 240, 21, 76, 18, 228, 6, 228, 44, 28, 242, 37, 38, 38, 7, 5, 8, 38, 243, 193, 255, 5, 1, 224, 12, 85, 229, 18, 39, 249, 233, 224, 19, 22, 245, 232, 36, 251, 21, 1, 240, 28, 251, 238, 74, 9, 241, 212, 221, 29, 240, 242, 7, 210, 7, 32, 19, 127, 23, 213, 8, 17, 12, 205, 2, 232, 220, 47, 19, 242, 31, 217, 230, 223, 34, 226, 100, 35, 235, 243, 247, 15, 24, 18, 237, 246, 31, 56, 255, 89, 242, 2, 29, 1, 209, 11, 254, 10, 14, 89, 35, 5, 48, 20, 254, 0, 12, 1, 25, 17, 58, 255, 11, 226, 229, 201, 219, 23, 37, 49, 7, 35, 245, 245, 231, 230, 229, 191, 13, 29, 214, 22, 30, 204, 31, 6, 23, 252, 232, 249, 61, 232, 13, 176, 240, 216, 45, 35, 226, 227, 1, 30, 243, 87, 5, 11, 2, 255, 242, 3, 12, 248, 1, 255, 62, 235, 35, 242, 214, 6, 9, 2, 81, 34, 249, 236, 1, 228, 7, 14, 249, 2, 29, 66, 17, 45, 24, 13, 253, 22, 34, 31, 3, 211, 211, 75, 19, 255, 49, 228, 224, 248, 2, 10, 43, 37, 247, 10, 39, 37, 18, 251, 15, 51, 25, 35, 228, 34, 172, 23, 226, 233, 200, 7, 228, 11, 16, 216, 220, 183, 121, 5, 10, 207, 203, 196, 1, 47, 185, 203, 88, 240, 175, 251, 215, 249, 49, 238, 199, 65, 56, 20, 29, 228, 16, 201, 216, 171, 231, 252, 4, 212, 253, 201, 7, 44, 245, 30, 201, 68, 204, 204, 247, 47, 196, 201, 60, 42, 26, 183, 191, 104, 88, 96, 42, 231, 28, 214, 238, 154, 239, 20, 91, 108, 70, 228, 232, 27, 241, 61, 9, 85, 71, 21, 64, 64, 76, 89, 108, 12, 159, 29, 49, 138, 7, 196, 201, 224, 181, 238, 26, 190, 244, 0, 198, 252, 208, 233, 52, 13, 25, 191, 231, 226, 254, 224, 187, 16, 227, 175, 140, 9, 187, 157, 185, 29, 175, 239, 7, 234, 168, 170, 51, 186, 196, 56, 227, 9, 66, 11, 195, 11, 26, 22, 212, 188, 245, 185, 81, 186, 45, 198, 35, 231, 18, 21, 5, 106, 50, 54, 38, 202, 154, 194, 19, 211, 2, 84, 243, 100, 108, 35, 217, 85, 57, 237, 21, 94, 1, 54, 67, 24, 38, 192, 18, 50, 206, 28, 63, 172, 4, 170, 3, 37, 32, 206, 245, 197, 218, 234, 195, 29, 4, 216, 35, 205, 221, 243, 241, 240, 22, 27, 9, 27, 48, 235, 20, 57, 217, 50, 226, 226, 24, 232, 202, 221, 249, 236, 255, 238, 11, 253, 207, 222, 56, 9, 31, 243, 174, 5, 255, 194, 211, 56, 51, 217, 6, 24, 235, 227, 18, 218, 175, 12, 206, 103, 127, 53, 240, 47, 17, 56, 4, 56, 230, 108, 19, 56, 49, 248, 222, 239, 17, 242, 234, 227, 87, 42, 12, 208, 75, 249, 235, 17, 254, 70, 181, 136, 207, 216, 225, 223, 40, 18, 30, 206, 238, 197, 58, 5, 23, 205, 235, 55, 23, 23, 188, 239, 234, 158, 231, 41, 139, 59, 44, 182, 247, 56, 36, 231, 232, 241, 24, 207, 58, 219, 11, 247, 10, 191, 38, 226, 230, 187, 255, 254, 219, 14, 229, 30, 59, 20, 14, 28, 151, 74, 233, 234, 230, 59, 195, 209, 224, 249, 38, 198, 38, 41, 29, 42, 199, 221, 102, 28, 235, 247, 194, 247, 9, 241, 222, 211, 1, 207, 93, 31, 213, 250, 254, 239, 253, 221, 39, 22, 214, 209, 16, 214, 210, 211, 32, 215, 23, 200, 0, 227, 31, 208, 127, 71, 190, 213, 204, 193, 232, 242, 228, 73, 13, 212, 51, 27, 14, 10, 79, 233, 253, 243, 211, 40, 232, 190, 21, 25, 3, 0, 97, 234, 207, 38, 23, 47, 39, 205, 9, 221, 79, 39, 198, 33, 241, 241, 225, 1, 21, 215, 20, 175, 240, 215, 64, 246, 209, 190, 31, 4, 221, 19, 99, 221, 19, 211, 76, 199, 246, 29, 207, 43, 56, 5, 10, 84, 2, 212, 63, 52, 239, 63, 97, 192, 254, 80, 203, 180, 25, 70, 54, 242, 59, 178, 1, 233, 39, 252, 13, 39, 199, 64, 0, 200, 22, 205, 240, 244, 209, 218, 49, 25, 97, 8, 96, 15, 206, 208, 237, 55, 243, 248, 220, 52, 35, 191, 224, 30, 219, 240, 49, 45, 22, 6, 21, 39, 234, 14, 251, 61, 17, 230, 59, 48, 248, 43, 35, 76, 42, 24, 204, 252, 244, 215, 201, 201, 242, 219, 166, 14, 241, 253, 88, 55, 251, 64, 50, 18, 70, 36, 2, 26, 22, 60, 12, 72, 48, 109, 75, 24, 87, 234, 250, 7, 12, 251, 19, 67, 245, 70, 255, 221, 252, 4, 34, 241, 19, 45, 28, 225, 249, 243, 206, 27, 13, 17, 220, 6, 21, 60, 47, 62, 31, 207, 11, 23, 195, 219, 210, 62, 6, 67, 221, 214, 238, 7, 30, 6, 118, 207, 71, 230, 227, 249, 34, 250, 8, 60, 206, 17, 216, 38, 239, 49, 220, 254, 57, 50, 238, 14, 26, 13, 63, 47, 180, 28, 41, 233, 252, 37, 71, 49, 60, 224, 195, 228, 241, 239, 3, 74, 223, 13, 231, 65, 244, 255, 8, 249, 218, 220, 56, 14, 201, 46, 49, 70, 52, 2, 214, 218, 38, 205, 94, 226, 29, 165, 2, 61, 8, 175, 248, 48, 217, 76, 0, 4, 24, 219, 41, 16, 244, 207, 206, 224, 32, 91, 85, 237, 139, 22, 241, 215, 232, 243, 98, 46, 8, 8, 3, 36, 198, 203, 185, 38, 197, 20, 54, 54, 28, 230, 37, 253, 199, 12, 21, 209, 250, 50, 30, 49, 246, 206, 236, 36, 231, 242, 88, 217, 64, 246, 210, 60, 31, 7, 64, 202, 35, 28, 205, 127, 28, 17, 54, 244, 235, 182, 239, 225, 59, 52, 71, 235, 251, 191, 251, 227, 44, 222, 65, 224, 224, 229, 40, 28, 31, 196, 190, 3, 22, 30, 229, 52, 8, 243, 31, 22, 159, 191, 249, 35, 7, 44, 36, 229, 182, 223, 252, 41, 5, 190, 34, 210, 41, 200, 23, 8, 242, 13, 226, 53, 30, 10, 20, 115, 47, 6, 229, 236, 160, 252, 42, 211, 2, 51, 19, 103, 208, 233, 42, 212, 247, 0, 122, 245, 28, 255, 41, 24, 229, 16, 35, 7, 40, 35, 6, 245, 243, 11, 15, 208, 124, 78, 41, 247, 51, 233, 29, 17, 34, 1, 4, 231, 28, 243, 68, 12, 224, 254, 30, 23, 142, 22, 222, 61, 54, 59, 25, 165, 23, 3, 232, 206, 80, 28, 185, 193, 204, 253, 31, 233, 219, 46, 189, 245, 48, 254, 242, 42, 249, 5, 35, 249, 175, 23, 222, 228, 14, 27, 0, 251, 31, 227, 206, 225, 243, 48, 183, 210, 209, 217, 211, 198, 20, 241, 11, 29, 245, 249, 255, 217, 39, 30, 55, 5, 229, 224, 247, 244, 204, 19, 49, 223, 30, 228, 29, 1, 108, 74, 221, 42, 239, 7, 11, 246, 5, 3, 204, 59, 28, 246, 27, 25, 7, 113, 81, 210, 208, 186, 220, 75, 92, 116, 15, 199, 210, 29, 232, 213, 117, 7, 179, 252, 222, 37, 238, 82, 202, 13, 212, 9, 223, 16, 113, 254, 236, 68, 85, 44, 232, 34, 2, 92, 248, 68, 223, 22, 7, 233, 16, 240, 30, 42, 5, 244, 24, 199, 197, 8, 165, 253, 252, 31, 8, 242, 42, 48, 25, 55, 234, 15, 251, 11, 218, 72, 12, 18, 191, 47, 59, 53, 90, 45, 93, 127, 53, 30, 35, 59, 57, 43, 235, 33, 250, 59, 64, 195, 68, 57, 31, 88, 90, 237, 237, 11, 7, 100, 53, 69, 20, 224, 245, 66, 52, 12, 44, 68, 22, 198, 224, 181, 203, 61, 214, 22, 178, 27, 13, 3, 103, 222, 28, 227, 85, 22, 18, 36, 57, 85, 215, 74, 225, 217, 185, 232, 28, 194, 255, 23, 203, 41, 218, 40, 221, 235, 205, 2, 246, 195, 202, 198, 219, 180, 8, 239, 15, 197, 66, 29, 46, 16, 218, 179, 253, 243, 186, 10, 239, 41, 192, 243, 54, 49, 231, 250, 189, 233, 50, 249, 22, 11, 227, 11, 244, 14, 229, 246, 237, 220, 43, 23, 233, 15, 213, 251, 224, 187, 246, 184, 255, 58, 147, 163, 10, 61, 51, 155, 0, 180, 50, 33, 245, 6, 241, 14, 247, 238, 181, 227, 204, 222, 199, 195, 162, 222, 228, 217, 252, 0, 201, 214, 22, 241, 186, 0, 250, 7, 48, 186, 20, 247, 110, 213, 233, 238, 13, 235, 222, 190, 202, 231, 219, 15, 211, 34, 207, 189, 228, 8, 38, 232, 157, 182, 206, 231, 60, 238, 49, 34, 222, 4, 193, 182, 116, 13, 46, 7, 235, 231, 197, 185, 208, 179, 220, 245, 41, 17, 242, 175, 206, 189, 24, 191, 180, 207, 193, 53, 20, 170, 23, 39, 50, 139, 212, 129, 35, 38, 236, 5, 238, 226, 157, 237, 171, 220, 232, 200, 0, 7, 149, 165, 188, 222, 214, 202, 188, 163, 6, 38, 200, 13, 233, 22, 227, 211, 229, 232, 89, 19, 26, 13, 222, 46, 244, 180, 184, 13, 229, 202, 29, 221, 235, 230, 3, 6, 30, 186, 254, 186, 241, 43, 98, 237, 49, 54, 2, 210, 227, 197, 41, 220, 24, 18, 186, 9, 197, 28, 10, 252, 239, 255, 12, 253, 22, 179, 244, 209, 231, 155, 239, 130, 193, 216, 72, 236, 225, 19, 22, 250, 232, 165, 26, 23, 44, 249, 2, 33, 138, 248, 247, 243, 168, 212, 238, 213, 228, 173, 14, 171, 212, 250, 28, 181, 243, 32, 18, 214, 222, 33, 48, 240, 252, 157, 83, 19, 47, 12, 246, 51, 199, 3, 231, 19, 4, 251, 18, 22, 193, 175, 213, 247, 6, 62, 227, 5, 232, 35, 188, 219, 7, 217, 49, 232, 74, 189, 196, 24, 13, 47, 58, 75, 37, 60, 23, 16, 7, 12, 255, 253, 43, 227, 29, 234, 20, 209, 254, 245, 6, 210, 226, 212, 29, 11, 209, 36, 252, 233, 248, 243, 10, 25, 68, 246, 6, 46, 212, 49, 234, 204, 223, 7, 40, 4, 27, 46, 64, 217, 253, 233, 212, 253, 241, 40, 42, 26, 74, 218, 253, 223, 219, 233, 31, 19, 60, 11, 174, 20, 33, 30, 5, 216, 202, 21, 229, 34, 91, 228, 235, 1, 242, 178, 4, 58, 149, 63, 218, 3, 243, 46, 53, 192, 21, 223, 11, 255, 199, 218, 11, 250, 24, 74, 17, 179, 229, 5, 230, 31, 79, 44, 222, 233, 209, 155, 40, 213, 176, 78, 39, 236, 39, 11, 235, 175, 240, 14, 35, 201, 203, 240, 48, 9, 33, 93, 73, 167, 195, 248, 199, 40, 29, 19, 44, 30, 193, 203, 45, 49, 163, 0, 226, 56, 46, 31, 34, 198, 193, 207, 6, 15, 227, 213, 223, 48, 1, 95, 66, 164, 246, 200, 206, 127, 72, 28, 218, 245, 13, 232, 41, 19, 63, 58, 231, 247, 219, 9, 40, 192, 10, 54, 20, 13, 239, 192, 23, 23, 205, 106, 242, 191, 23, 248, 171, 43, 91, 253, 17, 186, 154, 200, 30, 9, 232, 34, 22, 37, 241, 227, 228, 192, 41, 240, 22, 8, 177, 216, 37, 207, 194, 92, 250, 226, 36, 177, 143, 28, 20, 27, 178, 40, 204, 214, 200, 7, 241, 43, 204, 20, 209, 23, 173, 216, 47, 50, 203, 225, 206, 173, 245, 190, 253, 56, 219, 138, 64, 19, 231, 1, 52, 15, 229, 186, 66, 31, 220, 241, 127, 89, 251, 240, 202, 43, 100, 90, 201, 56, 197, 54, 115, 15, 34, 88, 99, 14, 14, 85, 209, 42, 22, 254, 43, 18, 73, 221, 251, 213, 55, 175, 8, 52, 252, 208, 19, 225, 87, 238, 248, 239, 251, 69, 83, 221, 38, 70, 238, 35, 101, 81, 225, 4, 251, 33, 254, 9, 4, 12, 25, 44, 239, 192, 249, 17, 38, 255, 205, 186, 250, 26, 36, 17, 234, 254, 26, 38, 35, 64, 237, 226, 45, 13, 234, 82, 194, 52, 225, 15, 210, 19, 246, 203, 28, 249, 206, 87, 223, 191, 222, 59, 252, 39, 250, 56, 197, 75, 246, 192, 30, 74, 75, 87, 55, 226, 169, 240, 167, 104, 95, 15, 14, 68, 247, 12, 85, 8, 14, 23, 193, 5, 220, 14, 2, 55, 203, 226, 232, 255, 221, 182, 8, 53, 49, 28, 62, 229, 227, 62, 219, 13, 9, 234, 10, 218, 11, 203, 44, 206, 44, 249, 30, 179, 232, 43, 223, 36, 16, 250, 209, 26, 200, 219, 18, 243, 216, 210, 7, 245, 43, 219, 8, 38, 185, 18, 200, 194, 95, 13, 57, 20, 8, 221, 204, 161, 27, 2, 24, 42, 29, 250, 33, 212, 63, 9, 208, 34, 254, 230, 7, 9, 174, 13, 212, 199, 59, 21, 28, 15, 235, 190, 250, 216, 57, 217, 197, 240, 213, 78, 250, 238, 232, 228, 222, 211, 55, 252, 238, 241, 237, 222, 18, 12, 35, 71, 30, 12, 7, 37, 34, 61, 253, 3, 71, 200, 197, 220, 24, 226, 44, 5, 12, 201, 246, 6, 242, 83, 0, 43, 10, 212, 238, 243, 53, 77, 203, 46, 228, 236, 4, 211, 32, 169, 223, 6, 190, 22, 234, 193, 240, 246, 236, 7, 218, 196, 9, 238, 26, 255, 35, 60, 145, 245, 163, 25, 237, 191, 223, 190, 240, 233, 179, 254, 44, 230, 243, 247, 5, 45, 191, 172, 65, 2, 7, 40, 52, 225, 87, 236, 243, 12, 50, 75, 205, 235, 28, 234, 197, 225, 229, 6, 229, 24, 168, 208, 253, 179, 249, 34, 193, 212, 226, 162, 32, 24, 35, 230, 41, 4, 215, 236, 74, 5, 34, 64, 222, 202, 198, 216, 180, 31, 253, 15, 17, 182, 15, 237, 243, 240, 179, 129, 165, 52, 32, 255, 233, 56, 253, 207, 159, 154, 184, 42, 4, 0, 197, 14, 230, 225, 244, 0, 30, 197, 230, 235, 197, 216, 217, 221, 19, 29, 233, 243, 44, 221, 39, 210, 77, 246, 229, 239, 245, 214, 17, 33, 24, 26, 194, 58, 193, 17, 52, 2, 221, 182, 23, 17, 222, 21, 25, 223, 219, 238, 4, 37, 34, 72, 206, 28, 81, 54, 246, 73, 229, 14, 45, 24, 39, 6, 60, 251, 222, 105, 13, 19, 25, 255, 157, 187, 234, 13, 255, 234, 67, 145, 159, 182, 167, 41, 216, 246, 15, 11, 8, 145, 175, 156, 252, 248, 229, 238, 229, 250, 216, 169, 10, 238, 30, 145, 14, 225, 154, 230, 12, 253, 214, 213, 176, 214, 234, 12, 228, 177, 229, 9, 199, 212, 235, 148, 28, 211, 34, 28, 12, 205, 243, 185, 190, 16, 7, 225, 238, 250, 228, 242, 239, 1, 237, 220, 218, 184, 2, 10, 8, 247, 211, 32, 12, 20, 232, 238, 74, 31, 8, 233, 170, 193, 225, 220, 26, 81, 36, 148, 194, 60, 244, 47, 38, 40, 196, 17, 9, 98, 240, 253, 35, 35, 20, 167, 13, 47, 252, 93, 58, 221, 188, 42, 76, 181, 213, 42, 59, 2, 243, 43, 27, 30, 97, 25, 231, 16, 34, 66, 64, 105, 232, 193, 30, 10, 36, 208, 19, 230, 11, 112, 32, 168, 180, 54, 58, 237, 245, 50, 43, 112, 91, 229, 69, 17, 24, 116, 231, 224, 255, 218, 54, 255, 255, 249, 120, 54, 42, 6, 4, 48, 211, 127, 216, 219, 16, 65, 21, 3, 1, 238, 18, 231, 72, 100, 20, 29, 73, 115, 252, 180, 28, 33, 238, 254, 181, 196, 1, 238, 195, 182, 36, 225, 197, 15, 219, 244, 185, 205, 36, 77, 223, 177, 166, 248, 4, 59, 212, 250, 20, 61, 196, 242, 62, 24, 247, 49, 49, 223, 251, 211, 250, 236, 11, 235, 240, 51, 180, 40, 223, 207, 241, 61, 160, 19, 250, 7, 225, 88, 236, 196, 82, 17, 58, 226, 220, 240, 42, 63, 114, 206, 245, 42, 58, 10, 222, 251, 50, 52, 242, 190, 26, 39, 210, 42, 203, 17, 46, 216, 100, 8, 61, 219, 88, 30, 219, 160, 16, 9, 36, 208, 37, 15, 235, 218, 59, 73, 46, 225, 217, 213, 176, 34, 201, 197, 26, 46, 190, 77, 11, 32, 227, 4, 172, 50, 223, 208, 246, 249, 12, 230, 9, 6, 230, 16, 11, 31, 11, 223, 9, 182, 53, 168, 235, 13, 40, 33, 57, 252, 186, 215, 255, 32, 25, 196, 239, 232, 182, 36, 65, 245, 233, 0, 191, 190, 50, 238, 3, 220, 182, 241, 232, 227, 220, 214, 238, 229, 47, 232, 188, 3, 198, 5, 3, 43, 8, 173, 165, 11, 46, 253, 52, 184, 232, 24, 55, 65, 21, 33, 29, 12, 227, 240, 9, 244, 62, 50, 55, 3, 218, 2, 83, 23, 222, 61, 253, 4, 29, 251, 220, 93, 20, 249, 39, 215, 247, 9, 25, 207, 44, 212, 26, 0, 203, 217, 203, 61, 28, 247, 63, 197, 240, 0, 21, 25, 212, 247, 212, 15, 79, 44, 232, 62, 251, 234, 68, 214, 16, 199, 18, 28, 48, 193, 26, 27, 32, 20, 19, 36, 221, 220, 59, 8, 202, 219, 58, 236, 228, 250, 242, 236, 245, 18, 235, 1, 11, 60, 221, 229, 216, 96, 253, 26, 239, 239, 26, 16, 217, 203, 10, 12, 228, 36, 78, 203, 244, 218, 232, 186, 194, 47, 54, 41, 62, 16, 211, 208, 230, 14, 14, 217, 232, 56, 66, 3, 249, 199, 2, 7, 215, 246, 242, 249, 232, 28, 2, 184, 196, 245, 90, 255, 0, 4, 33, 1, 53, 37, 199, 239, 17, 38, 245, 213, 38, 209, 37, 45, 225, 215, 237, 189, 231, 17, 250, 254, 42, 10, 179, 6, 228, 240, 75, 39, 180, 64, 40, 225, 253, 64, 234, 98, 2, 207, 245, 48, 248, 13, 36, 223, 229, 19, 12, 41, 18, 179, 251, 47, 25, 221, 2, 211, 19, 10, 234, 247, 3, 223, 242, 37, 7, 240, 213, 15, 2, 65, 51, 4, 214, 29, 29, 6, 34, 198, 49, 248, 203, 218, 36, 81, 215, 203, 237, 18, 13, 234, 220, 2, 195, 75, 28, 94, 127, 248, 235, 212, 209, 103, 103, 243, 34, 64, 202, 25, 83, 216, 52, 235, 35, 32, 2, 3, 215, 25, 197, 213, 214, 219, 218, 217, 236, 29, 75, 21, 102, 20, 234, 69, 238, 105, 100, 210, 2, 49, 6, 234, 21, 19, 62, 18, 244, 216, 24, 39, 77, 38, 243, 249, 16, 191, 244, 210, 127, 11, 50, 250, 221, 66, 186, 21, 3, 238, 13, 51, 46, 61, 217, 16, 80, 207, 94, 7, 219, 206, 236, 74, 235, 94, 10, 19, 11, 246, 37, 22, 46, 238, 61, 241, 47, 12, 228, 212, 6, 47, 249, 104, 216, 72, 23, 46, 9, 30, 50, 54, 25, 9, 48, 102, 210, 34, 35, 28, 243, 11, 250, 13, 74, 42, 16, 251, 66, 6, 42, 240, 32, 241, 222, 41, 20, 104, 218, 255, 65, 9, 20, 35, 18, 0, 231, 50, 73, 34, 73, 230, 208, 242, 21, 227, 34, 240, 52, 58, 24, 202, 9, 243, 15, 18, 30, 71, 32, 49, 225, 20, 8, 24, 24, 91, 13, 190, 246, 75, 15, 238, 22, 254, 20, 32, 181, 167, 106, 39, 218, 240, 27, 212, 52, 255, 36, 46, 247, 96, 231, 31, 177, 6, 78, 236, 46, 196, 1, 0, 231, 81, 205, 76, 209, 234, 226, 32, 209, 241, 5, 39, 42, 215, 5, 37, 72, 194, 7, 68, 189, 9, 243, 28, 204, 205, 40, 237, 76, 40, 221, 234, 1, 230, 29, 205, 218, 33, 203, 180, 242, 225, 41, 21, 240, 243, 70, 200, 46, 17, 239, 59, 45, 72, 242, 15, 193, 27, 49, 15, 74, 16, 242, 189, 183, 12, 254, 38, 59, 207, 234, 183, 172, 232, 87, 50, 235, 30, 0, 2, 43, 239, 7, 8, 1, 250, 231, 56, 244, 246, 24, 25, 67, 3, 221, 43, 29, 19, 254, 37, 53, 238, 243, 183, 26, 206, 18, 15, 11, 224, 40, 16, 52, 191, 35, 237, 12, 247, 41, 63, 214, 6, 8, 39, 34, 67, 252, 44, 255, 251, 31, 17, 9, 36, 223, 6, 194, 206, 46, 215, 222, 12, 11, 226, 40, 244, 251, 251, 222, 51, 229, 33, 240, 3, 225, 24, 77, 245, 242, 246, 29, 246, 227, 250, 77, 44, 214, 190, 183, 248, 48, 202, 226, 230, 225, 209, 47, 236, 48, 44, 13, 33, 16, 11, 206, 228, 246, 28, 48, 24, 228, 11, 236, 27, 21, 6, 55, 31, 255, 252, 215, 232, 234, 14, 246, 12, 231, 20, 20, 222, 221, 248, 25, 224, 250, 42, 251, 255, 13, 34, 55, 37, 226, 16, 14, 244, 226, 252, 63, 42, 19, 11, 33, 232, 9, 26, 239, 9, 28, 247, 25, 205, 47, 236, 240, 29, 219, 9, 214, 22, 253, 28, 48, 34, 11, 219, 210, 32, 241, 11, 86, 231, 212, 214, 253, 250, 14, 15, 219, 50, 236, 26, 40, 21, 18, 34, 48, 242, 235, 226, 239, 4, 51, 37, 83, 245, 233, 34, 234, 12, 245, 29, 57, 229, 253, 228, 16, 230, 225, 255, 15, 14, 21, 216, 91, 250, 9, 228, 37, 237, 211, 233, 208, 10, 30, 21, 70, 40, 230, 23, 47, 1, 54, 18, 27, 235, 42, 28, 33, 233, 36, 253, 20, 19, 12, 10, 7, 231, 49, 242, 0, 83, 226, 244, 177, 255, 220, 1, 71, 54, 214, 252, 251, 8, 218, 24, 59, 30, 255, 0, 14, 238, 3, 209, 251, 222, 28, 203, 127, 206, 243, 51, 232, 25, 213, 254, 216, 213, 22, 16, 87, 39, 224, 40, 242, 227, 238, 27, 6, 29, 16, 215, 216, 6, 235, 195, 250, 5, 21, 251, 86, 208, 250, 41, 244, 205, 204, 72, 220, 14, 23, 246, 17, 2, 24, 250, 23, 250, 13, 232, 20, 33, 15, 222, 39, 38, 1, 42, 36, 23, 13, 10, 245, 200, 252, 56, 27, 34, 26, 251, 40, 231, 7, 242, 24, 231, 228, 246, 26, 12, 21, 254, 200, 4, 236, 2, 49, 234, 249, 17, 240, 247, 11, 246, 213, 12, 234, 255, 226, 26, 19, 205, 26, 218, 247, 21, 243, 37, 23, 217, 1, 12, 28, 248, 222, 35, 43, 225, 48, 234, 253, 244, 224, 2, 22, 6, 221, 194, 246, 247, 19, 40, 4, 92, 249, 30, 244, 44, 251, 247, 17, 216, 38, 42, 234, 50, 243, 209, 238, 229, 201, 195, 101, 4, 53, 234, 26, 18, 215, 232, 222, 50, 4, 3, 18, 15, 248, 254, 242, 250, 216, 51, 20, 244, 223, 1, 39, 41, 208, 213, 0, 238, 217, 234, 81, 252, 249, 46, 51, 244, 209, 187, 10, 80, 38, 11, 213, 61, 224, 48, 23, 17, 224, 13, 24, 46, 216, 3, 232, 55, 234, 36, 221, 234, 2, 235, 60, 4, 52, 236, 58, 239, 217, 209, 14, 68, 16, 235, 2, 127, 6, 238, 254, 253, 249, 213, 234, 205, 217, 220, 16, 43, 47, 221, 0, 221, 254, 210, 45, 14, 248, 225, 209, 33, 3, 230, 34, 255, 212, 23, 215, 94, 10, 243, 35, 41, 49, 51, 250, 245, 202, 43, 226, 35, 185, 236, 19, 209, 19, 7, 10, 35, 12, 249, 15, 0, 55, 235, 1, 42, 236, 27, 19, 65, 233, 253, 12, 236, 0, 59, 33, 214, 1, 51, 43, 24, 16, 231, 229, 15, 21, 219, 83, 242, 4, 35, 37, 23, 28, 223, 18, 66, 216, 52, 4, 229, 95, 116, 70, 214, 219, 162, 189, 42, 22, 169, 62, 69, 2, 60, 230, 220, 54, 187, 248, 195, 10, 8, 45, 85, 179, 23, 255, 51, 188, 25, 195, 50, 20, 65, 199, 190, 30, 160, 177, 242, 58, 2, 222, 28, 129, 58, 208, 244, 111, 24, 4, 214, 5, 21, 243, 5, 172, 206, 85, 240, 228, 191, 13, 1, 62, 75, 191, 246, 102, 171, 12, 225, 222, 36, 26, 210, 152, 189, 8, 176, 48, 60, 217, 21, 214, 148, 180, 14, 136, 254, 57, 209, 23, 206, 58, 25, 71, 8, 64, 50, 23, 1, 20, 11, 252, 53, 60, 243, 59, 47, 15, 188, 241, 244, 252, 29, 245, 233, 98, 253, 156, 28, 137, 21, 60, 60, 238, 50, 190, 240, 227, 3, 214, 200, 227, 61, 22, 73, 210, 74, 246, 11, 215, 57, 28, 0, 236, 35, 78, 60, 79, 245, 10, 252, 6, 96, 253, 66, 75, 202, 21, 46, 99, 13, 237, 36, 40, 215, 223, 81, 249, 30, 196, 50, 62, 53, 207, 219, 233, 34, 82, 33, 69, 205, 135, 209, 19, 119, 0, 9, 66, 116, 70, 4, 39, 227, 49, 187, 196, 237, 50, 5, 233, 244, 71, 186, 21, 11, 93, 36, 254, 58, 40, 28, 9, 66, 249, 202, 213, 30, 72, 219, 73, 47, 2, 82, 10, 50, 16, 252, 246, 161, 22, 100, 38, 37, 214, 76, 230, 221, 91, 17, 87, 88, 224, 243, 118, 45, 174, 75, 66, 81, 60, 89, 38, 9, 54, 254, 24, 210, 196, 234, 193, 8, 189, 56, 13, 43, 173, 189, 211, 200, 84, 241, 72, 243, 243, 201, 35, 204, 16, 175, 44, 22, 39, 237, 244, 45, 212, 214, 234, 30, 164, 217, 215, 33, 43, 195, 213, 3, 36, 39, 225, 213, 34, 55, 234, 10, 48, 217, 29, 26, 214, 252, 205, 239, 207, 193, 216, 58, 69, 215, 240, 229, 155, 221, 36, 209, 53, 231, 62, 246, 237, 239, 18, 23, 38, 33, 15, 250, 212, 206, 13, 28, 6, 46, 234, 225, 189, 217, 8, 36, 223, 203, 47, 202, 244, 226, 43, 231, 46, 226, 217, 224, 62, 196, 27, 1, 14, 4, 30, 47, 2, 156, 7, 46, 213, 31, 249, 251, 245, 15, 48, 28, 62, 25, 255, 234, 188, 210, 226, 7, 240, 195, 10, 220, 8, 38, 250, 189, 36, 203, 19, 228, 241, 189, 15, 230, 203, 51, 199, 213, 0, 41, 12, 34, 14, 233, 54, 27, 183, 18, 240, 1, 21, 210, 64, 25, 31, 47, 48, 49, 239, 26, 246, 71, 208, 207, 200, 48, 217, 206, 219, 20, 210, 204, 62, 202, 33, 6, 211, 219, 163, 173, 6, 215, 34, 172, 248, 179, 27, 29, 34, 1, 69, 15, 201, 227, 187, 183, 160, 12, 243, 45, 2, 200, 246, 253, 30, 66, 1, 254, 6, 239, 24, 44, 52, 29, 42, 184, 30, 250, 11, 215, 13, 9, 7, 232, 13, 208, 24, 185, 43, 243, 182, 39, 188, 254, 217, 199, 13, 127, 48, 17, 211, 0, 168, 4, 32, 222, 34, 217, 43, 211, 42, 9, 38, 245, 52, 243, 2, 37, 43, 249, 13, 37, 226, 47, 2, 222, 15, 222, 207, 21, 38, 4, 227, 30, 134, 216, 15, 49, 0, 208, 254, 13, 226, 23, 56, 196, 17, 56, 164, 69, 54, 244, 181, 40, 231, 11, 174, 221, 223, 33, 17, 84, 20, 248, 59, 226, 2, 184, 47, 254, 212, 78, 42, 241, 74, 219, 6, 49, 220, 31, 62, 83, 51, 236, 49, 23, 36, 221, 65, 8, 236, 23, 218, 73, 45, 24, 81, 4, 40, 211, 200, 208, 232, 0, 41, 11, 240, 1, 246, 206, 58, 46, 79, 45, 35, 252, 234, 65, 229, 209, 248, 19, 16, 70, 240, 184, 222, 19, 73, 222, 9, 23, 50, 8, 212, 59, 226, 25, 227, 211, 221, 31, 25, 37, 210, 8, 228, 57, 14, 57, 27, 15, 234, 98, 245, 17, 49, 125, 239, 217, 86, 50, 229, 187, 229, 211, 15, 72, 71, 233, 66, 254, 226, 33, 208, 229, 36, 26, 57, 223, 20, 10, 196, 190, 162, 221, 238, 31, 12, 36, 221, 234, 225, 15, 242, 232, 225, 22, 2, 52, 53, 243, 246, 23, 39, 38, 49, 226, 39, 245, 20, 230, 57, 10, 211, 213, 231, 26, 72, 227, 20, 231, 251, 53, 10, 23, 209, 214, 245, 2, 43, 0, 26, 221, 23, 215, 14, 20, 35, 69, 8, 102, 37, 250, 245, 231, 33, 176, 32, 246, 50, 52, 53, 63, 200, 182, 202, 203, 48, 6, 214, 232, 190, 59, 249, 235, 89, 34, 246, 26, 28, 205, 53, 219, 40, 200, 28, 192, 250, 203, 191, 226, 64, 42, 192, 80, 175, 172, 64, 220, 8, 2, 42, 248, 194, 7, 29, 229, 90, 242, 209, 200, 214, 158, 246, 80, 23, 42, 64, 176, 240, 3, 6, 89, 28, 13, 27, 91, 223, 5, 33, 9, 57, 55, 214, 229, 230, 127, 11, 245, 61, 254, 219, 213, 252, 254, 57, 86, 103, 34, 53, 48, 60, 220, 6, 86, 9, 38, 248, 72, 236, 23, 24, 43, 89, 18, 15, 0, 34, 65, 85, 254, 118, 231, 219, 250, 33, 213, 31, 3, 59, 22, 97, 36, 249, 245, 248, 17, 1, 23, 30, 2, 14, 219, 232, 216, 245, 45, 41, 34, 32, 61, 49, 247, 66, 211, 208, 212, 24, 212, 254, 43, 18, 28, 39, 212, 74, 252, 22, 13, 228, 11, 11, 32, 180, 231, 89, 23, 47, 230, 241, 243, 3, 68, 203, 13, 54, 22, 239, 250, 247, 241, 39, 230, 231, 221, 32, 5, 127, 249, 50, 71, 229, 254, 252, 35, 19, 10, 247, 22, 48, 45, 11, 217, 187, 236, 218, 19, 55, 221, 247, 209, 230, 19, 30, 208, 213, 47, 46, 249, 67, 215, 21, 7, 247, 10, 192, 238, 240, 242, 27, 230, 7, 8, 193, 27, 197, 2, 0, 22, 20, 3, 255, 229, 182, 207, 64, 20, 243, 23, 1, 172, 102, 217, 244, 46, 223, 252, 193, 19, 216, 193, 49, 231, 46, 14, 11, 247, 18, 23, 231, 225, 25, 4, 231, 191, 192, 248, 52, 221, 253, 210, 191, 245, 107, 187, 30, 242, 237, 227, 203, 6, 12, 252, 30, 43, 81, 242, 210, 6, 16, 31, 51, 17, 35, 18, 41, 245, 38, 221, 0, 209, 231, 229, 198, 233, 69, 205, 220, 255, 224, 65, 223, 22, 220, 254, 226, 25, 52, 214, 221, 54, 1, 42, 252, 202, 22, 212, 209, 170, 6, 192, 74, 213, 177, 213, 241, 190, 76, 215, 211, 202, 247, 218, 239, 232, 254, 248, 206, 57, 32, 221, 40, 24, 212, 222, 253, 220, 6, 20, 60, 235, 182, 29, 8, 186, 13, 248, 200, 244, 95, 230, 244, 194, 222, 223, 192, 113, 21, 222, 233, 15, 228, 15, 47, 221, 43, 53, 46, 15, 53, 42, 30, 240, 2, 251, 97, 237, 227, 199, 209, 6, 59, 34, 235, 6, 32, 56, 227, 3, 247, 3, 214, 17, 218, 242, 16, 221, 38, 10, 45, 12, 10, 244, 254, 8, 215, 206, 54, 17, 6, 181, 24, 34, 15, 202, 211, 201, 255, 80, 238, 254, 199, 193, 216, 19, 24, 22, 15, 247, 212, 44, 187, 249, 165, 40, 37, 228, 252, 253, 195, 221, 206, 228, 178, 3, 46, 222, 18, 222, 183, 3, 248, 39, 242, 49, 239, 197, 11, 25, 44, 237, 200, 253, 246, 75, 66, 238, 210, 220, 222, 216, 127, 20, 218, 238, 198, 62, 19, 16, 94, 231, 187, 63, 32, 28, 12, 79, 37, 43, 244, 51, 29, 217, 212, 251, 238, 64, 183, 5, 217, 209, 8, 197, 7, 30, 12, 209, 247, 51, 52, 255, 56, 10, 221, 61, 6, 234, 219, 26, 234, 245, 223, 254, 201, 6, 207, 224, 201, 42, 206, 236, 53, 200, 190, 234, 19, 243, 19, 182, 195, 210, 28, 245, 212, 216, 252, 255, 13, 75, 48, 59, 36, 19, 213, 12, 194, 16, 34, 216, 15, 106, 231, 200, 4, 209, 49, 8, 113, 206, 30, 8, 174, 58, 36, 197, 50, 32, 225, 255, 45, 32, 26, 63, 46, 8, 202, 20, 44, 253, 11, 229, 32, 89, 241, 31, 253, 220, 197, 33, 21, 32, 230, 27, 233, 70, 224, 222, 0, 1, 194, 53, 213, 0, 6, 97, 49, 244, 25, 247, 51, 53, 231, 56, 195, 43, 31, 23, 234, 211, 246, 27, 252, 21, 212, 227, 246, 69, 22, 169, 84, 15, 191, 3, 238, 237, 12, 215, 61, 49, 228, 52, 247, 41, 9, 20, 26, 200, 52, 37, 246, 236, 236, 243, 238, 244, 44, 104, 47, 203, 29, 247, 31, 18, 54, 234, 64, 163, 232, 224, 65, 35, 60, 36, 19, 20, 59, 25, 212, 253, 6, 23, 44, 231, 74, 29, 218, 66, 0, 72, 76, 246, 218, 237, 204, 20, 68, 50, 11, 206, 218, 180, 23, 65, 36, 45, 62, 55, 89, 203, 229, 39, 52, 200, 18, 224, 244, 238, 3, 12, 83, 36, 79, 178, 182, 26, 224, 38, 43, 253, 83, 0, 3, 221, 19, 6, 9, 46, 50, 31, 42, 2, 17, 239, 39, 254, 234, 204, 206, 253, 213, 84, 24, 57, 85, 153, 183, 198, 187, 56, 108, 21, 236, 216, 199, 159, 242, 29, 80, 19, 235, 212, 231, 244, 40, 218, 22, 211, 17, 254, 237, 245, 207, 15, 74, 19, 127, 189, 198, 38, 190, 96, 38, 40, 32, 248, 230, 182, 225, 244, 102, 243, 253, 5, 217, 170, 209, 246, 245, 63, 7, 237, 235, 248, 250, 248, 58, 48, 82, 187, 11, 219, 255, 56, 94, 206, 24, 214, 195, 13, 11, 1, 94, 83, 177, 205, 212, 229, 227, 7, 84, 31, 240, 230, 255, 2, 65, 194, 250, 58, 92, 3, 22, 229, 13, 2, 64, 47, 230, 206, 239, 226, 54, 22, 55, 27, 180, 237, 201, 220, 179, 24, 14, 34, 189, 184, 196, 203, 45, 230, 218, 60, 19, 250, 65, 55, 41, 22, 87, 228, 203, 22, 175, 9, 23, 238, 47, 197, 209, 241, 16, 212, 186, 30, 2, 222, 19, 201, 218, 194, 230, 0, 192, 12, 27, 48, 83, 1, 231, 24, 18, 239, 184, 254, 218, 254, 255, 4, 0, 0, 0, 128, 0, 0, 0, 73, 244, 255, 255, 97, 241, 255, 255, 194, 250, 255, 255, 205, 243, 255, 255, 169, 235, 255, 255, 154, 241, 255, 255, 95, 247, 255, 255, 181, 240, 255, 255, 55, 245, 255, 255, 149, 247, 255, 255, 246, 243, 255, 255, 6, 227, 255, 255, 196, 248, 255, 255, 127, 235, 255, 255, 180, 253, 255, 255, 26, 247, 255, 255, 190, 252, 255, 255, 190, 24, 0, 0, 226, 242, 255, 255, 181, 241, 255, 255, 231, 9, 0, 0, 190, 234, 255, 255, 218, 234, 255, 255, 73, 241, 255, 255, 64, 20, 0, 0, 14, 254, 255, 255, 116, 235, 255, 255, 71, 3, 0, 0, 190, 244, 255, 255, 131, 4, 0, 0, 146, 255, 255, 255, 36, 252, 255, 255, 138, 219, 254, 255, 4, 0, 0, 0, 0, 32, 1, 0, 11, 14, 243, 40, 43, 251, 172, 166, 185, 249, 255, 89, 42, 34, 30, 136, 103, 185, 182, 2, 75, 58, 0, 155, 229, 11, 60, 203, 183, 59, 186, 182, 28, 218, 54, 246, 0, 227, 174, 238, 207, 54, 235, 20, 63, 2, 87, 216, 242, 65, 42, 252, 244, 243, 86, 248, 60, 52, 197, 5, 22, 178, 8, 71, 227, 224, 175, 255, 22, 154, 40, 157, 73, 8, 53, 19, 205, 171, 83, 28, 218, 225, 78, 185, 12, 249, 160, 84, 191, 152, 96, 249, 195, 102, 12, 45, 168, 49, 185, 156, 80, 49, 141, 161, 204, 212, 31, 237, 208, 206, 59, 202, 52, 160, 35, 17, 67, 6, 202, 174, 148, 53, 4, 9, 218, 25, 175, 233, 39, 20, 11, 241, 255, 172, 246, 44, 142, 151, 63, 20, 217, 203, 57, 27, 23, 173, 244, 181, 46, 21, 68, 48, 105, 135, 171, 159, 149, 101, 247, 213, 167, 49, 252, 97, 196, 208, 156, 157, 247, 21, 161, 236, 233, 239, 0, 26, 179, 255, 31, 94, 100, 12, 22, 54, 224, 75, 27, 235, 186, 167, 243, 169, 52, 26, 177, 77, 92, 254, 75, 148, 4, 74, 10, 172, 168, 155, 12, 181, 30, 48, 220, 242, 61, 196, 165, 73, 197, 166, 8, 59, 183, 209, 81, 54, 234, 185, 37, 62, 96, 14, 56, 20, 205, 178, 203, 148, 176, 52, 5, 132, 255, 205, 169, 22, 22, 188, 229, 192, 172, 203, 213, 240, 2, 227, 2, 19, 169, 249, 223, 4, 193, 234, 10, 41, 148, 6, 190, 255, 144, 224, 154, 139, 160, 11, 201, 169, 75, 43, 218, 47, 175, 50, 49, 58, 78, 242, 171, 26, 41, 236, 17, 233, 191, 10, 153, 64, 151, 228, 14, 225, 7, 228, 2, 59, 76, 255, 209, 160, 204, 247, 231, 228, 48, 24, 144, 5, 64, 180, 66, 4, 76, 72, 228, 192, 207, 18, 148, 27, 190, 17, 100, 145, 203, 179, 1, 65, 50, 236, 228, 207, 13, 244, 242, 40, 6, 189, 58, 146, 30, 158, 229, 60, 162, 15, 11, 179, 76, 193, 225, 48, 46, 249, 255, 215, 161, 46, 233, 200, 20, 28, 225, 173, 188, 27, 10, 20, 23, 20, 54, 15, 230, 54, 74, 246, 174, 95, 180, 219, 190, 158, 10, 56, 34, 1, 242, 92, 198, 6, 76, 12, 5, 218, 183, 79, 171, 154, 225, 33, 56, 157, 216, 191, 170, 180, 17, 234, 41, 97, 53, 171, 38, 219, 145, 214, 52, 25, 97, 43, 162, 91, 16, 234, 178, 222, 221, 168, 41, 227, 222, 166, 49, 230, 24, 249, 32, 29, 88, 170, 247, 157, 23, 64, 181, 230, 217, 31, 48, 230, 51, 9, 27, 191, 42, 193, 14, 145, 13, 247, 184, 24, 190, 198, 9, 165, 197, 134, 217, 17, 181, 245, 47, 92, 174, 194, 176, 62, 52, 246, 84, 61, 77, 254, 170, 199, 77, 190, 176, 93, 63, 35, 38, 149, 174, 250, 18, 28, 59, 38, 241, 255, 242, 8, 163, 204, 4, 58, 231, 230, 1, 218, 210, 179, 67, 218, 45, 15, 0, 152, 248, 196, 183, 49, 234, 24, 74, 13, 18, 69, 73, 214, 54, 34, 231, 55, 152, 190, 7, 183, 49, 223, 240, 82, 34, 243, 211, 240, 73, 233, 231, 238, 159, 243, 235, 35, 33, 254, 44, 62, 189, 2, 218, 27, 173, 63, 56, 238, 170, 202, 40, 1, 181, 224, 37, 26, 13, 171, 100, 53, 193, 255, 240, 204, 15, 2, 205, 252, 38, 1, 52, 211, 29, 253, 190, 234, 20, 154, 76, 16, 198, 39, 47, 21, 42, 165, 82, 160, 60, 95, 58, 20, 81, 79, 150, 55, 27, 12, 234, 219, 79, 236, 182, 218, 55, 204, 205, 5, 230, 5, 25, 39, 189, 201, 204, 25, 16, 238, 83, 161, 222, 248, 207, 239, 59, 184, 10, 7, 169, 52, 246, 15, 160, 43, 161, 231, 6, 66, 95, 208, 205, 38, 192, 201, 254, 69, 80, 201, 227, 216, 148, 75, 171, 234, 190, 24, 55, 68, 167, 202, 165, 159, 44, 156, 208, 4, 63, 239, 16, 203, 25, 6, 221, 92, 239, 129, 152, 70, 232, 176, 217, 28, 23, 153, 49, 26, 97, 194, 160, 162, 154, 26, 164, 232, 225, 17, 220, 203, 50, 72, 39, 15, 42, 201, 242, 82, 38, 179, 162, 203, 70, 96, 180, 15, 151, 226, 54, 234, 250, 154, 168, 22, 218, 152, 176, 193, 224, 235, 150, 216, 240, 46, 200, 40, 173, 222, 184, 200, 26, 33, 83, 237, 163, 157, 193, 234, 43, 210, 182, 52, 240, 180, 218, 235, 4, 56, 95, 13, 191, 48, 17, 18, 63, 19, 37, 75, 155, 6, 164, 12, 229, 139, 203, 212, 196, 45, 202, 188, 79, 229, 195, 37, 172, 230, 81, 171, 196, 252, 71, 159, 189, 244, 50, 166, 72, 51, 84, 175, 251, 190, 82, 192, 77, 162, 183, 186, 77, 17, 63, 230, 248, 65, 239, 193, 178, 170, 218, 187, 144, 218, 7, 194, 221, 16, 178, 165, 212, 85, 166, 142, 158, 22, 230, 248, 193, 9, 156, 72, 13, 159, 223, 24, 152, 83, 148, 167, 246, 252, 60, 106, 18, 47, 157, 250, 207, 145, 223, 168, 162, 196, 86, 83, 253, 172, 149, 172, 185, 250, 69, 94, 219, 226, 236, 85, 189, 44, 182, 138, 9, 252, 136, 43, 15, 160, 186, 50, 64, 199, 14, 203, 163, 135, 177, 197, 151, 62, 27, 51, 60, 232, 249, 183, 240, 59, 240, 176, 152, 42, 237, 141, 80, 193, 162, 15, 137, 201, 253, 68, 54, 40, 159, 160, 224, 40, 65, 40, 38, 186, 222, 100, 16, 40, 189, 108, 112, 235, 48, 24, 230, 182, 74, 183, 83, 11, 240, 45, 174, 170, 251, 193, 194, 221, 152, 189, 46, 42, 239, 194, 171, 150, 14, 215, 29, 9, 190, 163, 205, 27, 59, 179, 67, 10, 175, 190, 25, 161, 40, 214, 174, 22, 171, 246, 238, 170, 32, 72, 35, 166, 57, 162, 54, 187, 166, 43, 239, 35, 54, 56, 254, 178, 184, 143, 137, 156, 53, 224, 63, 37, 220, 242, 28, 229, 55, 23, 16, 1, 207, 174, 254, 40, 29, 78, 196, 20, 223, 14, 54, 52, 48, 34, 89, 230, 88, 44, 7, 177, 220, 138, 200, 80, 176, 14, 15, 74, 44, 162, 66, 175, 21, 230, 209, 253, 79, 74, 250, 23, 224, 80, 53, 232, 76, 98, 176, 155, 150, 4, 61, 182, 184, 55, 158, 13, 21, 201, 197, 227, 26, 234, 187, 179, 157, 210, 199, 164, 147, 212, 66, 15, 137, 219, 220, 228, 34, 184, 48, 237, 57, 84, 169, 84, 43, 205, 182, 34, 239, 37, 229, 205, 193, 48, 163, 237, 144, 159, 77, 192, 175, 52, 59, 177, 81, 223, 214, 70, 236, 27, 32, 233, 221, 33, 224, 27, 12, 225, 252, 229, 16, 219, 21, 4, 29, 1, 31, 6, 218, 8, 246, 244, 28, 246, 18, 247, 12, 6, 235, 243, 10, 24, 4, 251, 42, 8, 233, 57, 65, 253, 255, 59, 25, 41, 239, 213, 244, 238, 43, 35, 6, 8, 6, 238, 63, 248, 245, 11, 30, 23, 239, 30, 5, 245, 7, 241, 16, 227, 218, 0, 50, 231, 213, 58, 5, 12, 231, 215, 230, 243, 10, 18, 42, 24, 54, 3, 6, 251, 47, 32, 246, 250, 249, 40, 209, 28, 18, 45, 53, 236, 250, 88, 79, 226, 28, 35, 229, 24, 14, 29, 198, 5, 33, 240, 17, 50, 245, 146, 222, 245, 39, 50, 225, 220, 217, 98, 234, 35, 252, 241, 14, 27, 200, 65, 253, 210, 255, 57, 245, 253, 34, 228, 186, 23, 254, 6, 9, 34, 53, 209, 221, 227, 26, 246, 240, 231, 248, 45, 27, 28, 8, 3, 0, 245, 253, 40, 245, 224, 236, 254, 249, 237, 247, 233, 2, 1, 237, 17, 33, 253, 28, 14, 212, 32, 30, 36, 24, 237, 14, 12, 252, 1, 234, 249, 14, 25, 242, 225, 56, 253, 11, 5, 237, 11, 52, 1, 246, 21, 12, 77, 22, 51, 36, 49, 26, 38, 40, 222, 20, 21, 5, 253, 49, 1, 242, 251, 66, 31, 15, 30, 56, 24, 31, 72, 28, 61, 252, 236, 19, 14, 246, 61, 235, 69, 23, 222, 250, 225, 34, 247, 245, 27, 208, 254, 39, 31, 218, 35, 74, 48, 15, 43, 255, 58, 233, 67, 213, 11, 15, 245, 13, 29, 23, 5, 28, 42, 42, 188, 201, 246, 44, 18, 216, 3, 234, 28, 243, 16, 31, 225, 60, 11, 189, 38, 75, 1, 237, 49, 10, 14, 67, 252, 20, 240, 35, 243, 15, 99, 252, 205, 207, 240, 40, 25, 211, 225, 252, 61, 196, 34, 30, 221, 62, 241, 215, 74, 56, 220, 235, 36, 6, 242, 39, 237, 223, 11, 47, 17, 39, 76, 17, 184, 252, 3, 9, 37, 249, 215, 31, 55, 27, 50, 33, 49, 9, 41, 43, 59, 251, 9, 220, 25, 40, 215, 37, 45, 5, 1, 234, 252, 38, 49, 38, 28, 217, 18, 52, 15, 69, 15, 9, 251, 252, 38, 11, 3, 7, 4, 250, 225, 64, 7, 230, 32, 38, 36, 3, 243, 31, 252, 32, 39, 12, 30, 17, 251, 28, 26, 35, 248, 31, 31, 25, 12, 50, 245, 227, 239, 17, 252, 239, 3, 8, 6, 37, 250, 254, 66, 216, 12, 0, 253, 17, 251, 233, 32, 254, 235, 5, 25, 37, 245, 248, 51, 236, 53, 253, 14, 239, 202, 233, 10, 203, 3, 20, 232, 1, 215, 7, 26, 188, 236, 188, 30, 70, 253, 21, 54, 247, 206, 233, 219, 241, 26, 214, 22, 249, 43, 252, 32, 250, 221, 23, 182, 151, 12, 247, 244, 12, 229, 30, 73, 251, 244, 164, 27, 22, 216, 12, 10, 188, 193, 247, 223, 238, 241, 245, 236, 243, 31, 237, 234, 242, 240, 252, 0, 226, 33, 201, 28, 43, 249, 32, 226, 26, 252, 5, 13, 22, 55, 16, 25, 13, 228, 209, 232, 16, 14, 12, 246, 249, 219, 33, 28, 219, 20, 0, 53, 17, 239, 248, 44, 253, 30, 40, 45, 251, 27, 26, 0, 1, 242, 213, 72, 29, 219, 3, 31, 25, 22, 15, 226, 4, 232, 41, 234, 11, 228, 22, 1, 3, 254, 8, 25, 24, 10, 32, 33, 230, 239, 18, 208, 36, 8, 23, 31, 23, 32, 248, 25, 245, 224, 1, 34, 25, 29, 4, 242, 226, 234, 0, 5, 13, 205, 37, 254, 249, 213, 2, 49, 11, 230, 55, 6, 56, 59, 254, 253, 4, 33, 35, 25, 24, 207, 16, 19, 222, 38, 229, 236, 230, 251, 215, 226, 229, 144, 237, 254, 18, 163, 204, 239, 206, 247, 5, 7, 24, 250, 11, 223, 223, 217, 25, 217, 195, 209, 221, 58, 225, 24, 207, 7, 253, 252, 242, 180, 129, 205, 213, 172, 26, 207, 248, 48, 184, 181, 176, 49, 242, 203, 234, 170, 230, 180, 226, 145, 180, 15, 186, 37, 202, 222, 2, 10, 3, 5, 229, 246, 184, 243, 177, 178, 239, 2, 61, 37, 9, 245, 194, 18, 225, 27, 31, 251, 202, 156, 10, 220, 219, 242, 20, 252, 51, 213, 0, 51, 231, 73, 233, 58, 13, 249, 227, 32, 39, 252, 25, 45, 37, 57, 235, 22, 247, 238, 244, 15, 29, 211, 224, 45, 14, 2, 31, 224, 52, 18, 242, 34, 249, 55, 4, 242, 45, 244, 11, 19, 14, 4, 228, 50, 238, 250, 12, 225, 4, 34, 232, 37, 15, 25, 12, 23, 36, 220, 24, 20, 33, 213, 39, 38, 225, 251, 30, 252, 42, 210, 51, 40, 19, 238, 197, 230, 65, 224, 14, 28, 4, 61, 246, 249, 55, 239, 29, 235, 224, 199, 236, 244, 10, 27, 191, 31, 233, 243, 198, 242, 221, 227, 27, 5, 13, 212, 229, 55, 6, 18, 8, 12, 213, 43, 240, 230, 6, 252, 246, 229, 198, 204, 244, 49, 30, 206, 248, 17, 237, 223, 228, 219, 191, 242, 190, 232, 1, 17, 232, 35, 242, 198, 217, 32, 210, 201, 251, 198, 225, 231, 218, 168, 234, 23, 190, 243, 239, 180, 227, 248, 14, 8, 224, 222, 248, 27, 185, 239, 245, 33, 36, 17, 222, 2, 244, 10, 234, 230, 245, 15, 1, 193, 254, 214, 229, 237, 230, 42, 19, 240, 44, 25, 28, 15, 26, 36, 21, 27, 33, 253, 240, 249, 34, 48, 33, 49, 220, 19, 253, 17, 12, 23, 2, 246, 229, 55, 27, 4, 243, 34, 17, 232, 6, 28, 241, 26, 2, 239, 10, 213, 246, 251, 32, 11, 236, 52, 246, 240, 12, 224, 30, 10, 31, 5, 209, 19, 0, 23, 27, 231, 216, 254, 249, 246, 26, 227, 237, 5, 58, 241, 10, 222, 2, 12, 5, 217, 240, 4, 7, 8, 58, 240, 200, 51, 249, 248, 230, 37, 5, 38, 251, 207, 254, 56, 27, 19, 250, 51, 1, 226, 227, 251, 27, 208, 28, 254, 4, 23, 16, 250, 228, 9, 3, 230, 245, 20, 1, 5, 247, 251, 16, 220, 30, 1, 0, 72, 37, 1, 1, 234, 220, 218, 30, 24, 212, 246, 212, 22, 240, 254, 231, 45, 12, 227, 2, 22, 1, 53, 7, 229, 227, 36, 12, 235, 11, 244, 233, 216, 10, 3, 247, 238, 241, 5, 252, 4, 248, 250, 242, 254, 10, 66, 253, 53, 232, 231, 202, 39, 11, 194, 242, 16, 245, 200, 228, 17, 219, 0, 239, 197, 66, 13, 25, 234, 21, 37, 230, 19, 17, 8, 226, 12, 26, 35, 8, 27, 28, 238, 219, 33, 252, 202, 233, 249, 34, 244, 0, 246, 30, 46, 42, 238, 20, 243, 23, 235, 28, 255, 13, 200, 4, 225, 237, 228, 30, 249, 245, 237, 12, 236, 205, 249, 245, 202, 14, 215, 10, 238, 52, 2, 246, 237, 215, 21, 230, 237, 235, 15, 228, 37, 240, 229, 244, 252, 244, 236, 252, 3, 250, 18, 231, 13, 205, 225, 6, 0, 248, 223, 28, 10, 31, 26, 35, 229, 6, 14, 243, 10, 241, 221, 246, 16, 10, 25, 47, 252, 27, 255, 217, 33, 244, 31, 8, 12, 219, 255, 3, 239, 234, 214, 41, 227, 21, 44, 227, 250, 9, 0, 241, 86, 6, 222, 29, 21, 36, 14, 226, 11, 37, 8, 4, 50, 6, 13, 251, 215, 251, 228, 26, 6, 229, 12, 10, 177, 236, 45, 27, 34, 246, 237, 244, 93, 253, 243, 252, 27, 35, 241, 33, 242, 244, 16, 36, 7, 240, 5, 44, 15, 222, 227, 218, 22, 13, 253, 236, 232, 230, 43, 14, 23, 35, 215, 222, 229, 209, 225, 252, 219, 218, 5, 18, 218, 27, 0, 23, 206, 30, 216, 227, 26, 225, 238, 15, 252, 223, 32, 215, 219, 255, 33, 46, 245, 227, 220, 215, 12, 1, 244, 22, 220, 254, 249, 4, 6, 216, 5, 22, 215, 240, 224, 239, 214, 244, 248, 12, 197, 231, 23, 203, 245, 26, 221, 225, 9, 204, 18, 238, 221, 15, 12, 246, 248, 246, 25, 34, 243, 251, 229, 17, 3, 251, 232, 0, 49, 247, 222, 21, 10, 15, 19, 242, 228, 228, 33, 32, 229, 4, 60, 12, 44, 47, 23, 9, 2, 5, 47, 14, 36, 44, 56, 240, 3, 46, 4, 227, 57, 15, 18, 30, 237, 38, 26, 231, 37, 15, 59, 25, 239, 12, 249, 227, 52, 255, 250, 233, 55, 252, 8, 36, 92, 81, 28, 13, 27, 49, 253, 42, 24, 241, 10, 10, 223, 240, 77, 244, 249, 219, 29, 37, 40, 27, 33, 21, 108, 30, 27, 253, 247, 254, 41, 19, 46, 6, 12, 230, 6, 32, 255, 4, 22, 209, 8, 25, 21, 246, 19, 241, 10, 26, 82, 8, 247, 70, 19, 0, 17, 7, 209, 11, 3, 237, 8, 6, 0, 235, 8, 239, 250, 37, 250, 228, 243, 17, 236, 17, 0, 43, 26, 40, 243, 248, 33, 27, 246, 17, 245, 20, 10, 233, 247, 12, 247, 223, 198, 227, 208, 252, 236, 244, 205, 233, 231, 253, 209, 190, 34, 241, 230, 236, 192, 254, 197, 221, 202, 215, 22, 208, 31, 17, 225, 230, 231, 28, 3, 223, 235, 217, 191, 208, 238, 211, 206, 10, 228, 241, 12, 217, 249, 22, 253, 14, 233, 178, 233, 36, 228, 204, 11, 232, 23, 237, 241, 29, 28, 8, 216, 216, 237, 241, 189, 8, 242, 212, 153, 8, 31, 212, 224, 180, 39, 18, 206, 235, 20, 168, 232, 228, 211, 254, 233, 6, 207, 188, 59, 42, 231, 11, 25, 31, 25, 227, 31, 254, 28, 220, 255, 17, 82, 6, 26, 253, 222, 61, 197, 0, 17, 226, 217, 4, 43, 234, 213, 45, 245, 14, 77, 7, 224, 246, 41, 127, 5, 58, 33, 19, 11, 251, 12, 34, 29, 22, 72, 11, 229, 244, 27, 27, 55, 81, 251, 252, 36, 23, 13, 56, 0, 255, 13, 56, 20, 0, 241, 33, 252, 27, 2, 242, 78, 248, 226, 247, 247, 242, 0, 18, 26, 242, 230, 32, 50, 6, 7, 241, 26, 18, 227, 31, 28, 55, 221, 221, 34, 226, 33, 16, 218, 235, 17, 11, 3, 20, 11, 216, 240, 14, 226, 226, 10, 206, 224, 27, 247, 21, 203, 220, 226, 211, 25, 220, 31, 31, 253, 5, 249, 22, 236, 199, 196, 226, 158, 209, 23, 220, 152, 252, 209, 1, 218, 233, 28, 234, 204, 199, 190, 208, 237, 15, 208, 201, 221, 181, 217, 48, 234, 199, 25, 255, 209, 207, 163, 218, 178, 251, 199, 1, 166, 173, 246, 208, 243, 249, 3, 239, 163, 208, 213, 214, 218, 43, 202, 144, 193, 155, 27, 184, 16, 42, 36, 224, 215, 31, 226, 191, 236, 0, 22, 3, 94, 211, 66, 26, 249, 181, 39, 234, 223, 3, 25, 207, 16, 19, 208, 220, 25, 192, 22, 233, 227, 16, 241, 221, 6, 25, 29, 15, 0, 255, 27, 251, 56, 47, 45, 242, 41, 13, 247, 192, 19, 29, 73, 53, 219, 231, 249, 4, 232, 255, 247, 8, 186, 53, 4, 230, 20, 35, 247, 247, 27, 18, 37, 7, 48, 27, 243, 39, 4, 215, 4, 240, 235, 251, 47, 39, 20, 230, 226, 26, 12, 37, 254, 13, 2, 25, 6, 16, 34, 231, 217, 234, 36, 249, 5, 239, 0, 16, 42, 244, 31, 251, 37, 229, 4, 44, 12, 252, 84, 30, 13, 254, 24, 245, 243, 64, 9, 7, 37, 37, 40, 46, 3, 38, 220, 207, 15, 15, 2, 12, 4, 14, 214, 34, 234, 8, 51, 210, 14, 12, 6, 11, 249, 245, 31, 198, 22, 23, 201, 201, 25, 225, 38, 21, 184, 252, 200, 218, 23, 246, 251, 244, 255, 72, 225, 239, 253, 186, 2, 205, 193, 27, 242, 245, 20, 253, 225, 222, 11, 45, 197, 33, 245, 224, 254, 51, 199, 252, 5, 167, 238, 240, 113, 7, 244, 58, 16, 205, 220, 181, 208, 17, 11, 22, 46, 47, 15, 229, 32, 22, 209, 36, 159, 61, 4, 23, 21, 48, 13, 226, 53, 32, 17, 231, 120, 246, 30, 37, 15, 0, 13, 5, 14, 225, 30, 214, 5, 48, 255, 17, 240, 24, 11, 14, 202, 34, 244, 238, 242, 33, 245, 17, 32, 31, 3, 8, 30, 41, 250, 255, 37, 191, 31, 233, 230, 33, 232, 240, 228, 40, 224, 244, 16, 226, 252, 250, 18, 31, 238, 233, 244, 29, 34, 251, 216, 226, 18, 226, 31, 5, 19, 236, 25, 0, 50, 31, 225, 17, 19, 251, 21, 222, 28, 46, 29, 49, 5, 17, 11, 40, 34, 249, 3, 15, 44, 231, 18, 26, 12, 22, 14, 239, 14, 37, 36, 16, 232, 14, 247, 13, 35, 8, 8, 20, 15, 40, 236, 2, 23, 1, 1, 48, 57, 8, 28, 24, 41, 229, 241, 40, 227, 224, 33, 31, 3, 7, 34, 253, 227, 23, 238, 17, 3, 54, 247, 41, 239, 248, 250, 1, 54, 37, 202, 94, 225, 24, 0, 93, 226, 51, 21, 238, 45, 242, 51, 50, 76, 229, 6, 234, 251, 228, 30, 249, 26, 25, 9, 254, 38, 253, 18, 45, 248, 78, 223, 68, 36, 13, 252, 86, 41, 252, 244, 5, 5, 224, 68, 39, 221, 8, 58, 241, 29, 12, 194, 21, 68, 10, 39, 44, 246, 43, 247, 4, 0, 45, 241, 10, 2, 240, 230, 251, 22, 3, 37, 19, 17, 42, 2, 240, 3, 243, 35, 241, 15, 255, 184, 241, 246, 226, 208, 10, 4, 250, 253, 17, 213, 20, 19, 0, 19, 3, 17, 14, 202, 27, 2, 0, 2, 243, 34, 8, 17, 244, 250, 177, 41, 241, 45, 4, 204, 251, 213, 9, 26, 15, 245, 55, 51, 213, 203, 242, 253, 38, 41, 22, 36, 252, 207, 71, 50, 38, 172, 43, 237, 9, 42, 44, 53, 44, 55, 47, 43, 228, 13, 224, 24, 2, 27, 11, 245, 233, 39, 184, 46, 213, 30, 85, 184, 197, 242, 17, 50, 215, 219, 24, 45, 30, 218, 16, 230, 255, 198, 203, 196, 253, 203, 28, 242, 218, 219, 4, 42, 255, 2, 233, 30, 218, 234, 26, 14, 245, 82, 41, 197, 25, 196, 201, 216, 41, 246, 234, 240, 215, 207, 85, 183, 190, 13, 243, 12, 208, 10, 215, 52, 197, 4, 31, 34, 219, 181, 31, 247, 46, 19, 81, 248, 250, 241, 64, 18, 234, 36, 237, 4, 7, 65, 44, 73, 198, 206, 204, 40, 32, 211, 64, 23, 1, 247, 226, 224, 25, 208, 15, 3, 234, 40, 252, 40, 39, 176, 37, 197, 57, 14, 190, 227, 60, 56, 220, 241, 19, 13, 210, 205, 16, 203, 9, 212, 34, 61, 236, 12, 248, 242, 196, 36, 225, 242, 238, 252, 20, 210, 230, 214, 220, 20, 43, 9, 247, 10, 72, 202, 217, 20, 38, 17, 229, 249, 246, 230, 254, 225, 32, 5, 50, 25, 206, 252, 252, 22, 209, 192, 17, 3, 204, 191, 44, 15, 250, 47, 62, 221, 4, 8, 24, 61, 37, 9, 55, 48, 59, 245, 12, 34, 34, 14, 47, 22, 18, 42, 3, 10, 31, 237, 233, 88, 28, 23, 192, 193, 14, 244, 250, 223, 240, 200, 241, 249, 10, 236, 57, 27, 56, 240, 239, 69, 45, 229, 196, 35, 234, 245, 217, 1, 242, 1, 205, 244, 50, 28, 227, 35, 50, 57, 254, 36, 251, 2, 14, 223, 228, 254, 238, 224, 28, 28, 235, 18, 240, 252, 226, 255, 21, 12, 40, 229, 236, 10, 229, 51, 209, 48, 2, 246, 69, 56, 57, 9, 241, 0, 53, 234, 216, 241, 38, 17, 215, 13, 231, 31, 58, 64, 234, 235, 65, 224, 243, 231, 23, 231, 23, 16, 183, 220, 251, 226, 50, 245, 229, 35, 7, 7, 176, 225, 246, 54, 226, 247, 185, 20, 16, 25, 221, 44, 44, 18, 229, 245, 6, 37, 239, 208, 51, 228, 248, 22, 185, 13, 21, 19, 0, 25, 211, 255, 219, 45, 0, 225, 52, 244, 167, 18, 207, 245, 243, 201, 208, 4, 57, 51, 13, 203, 245, 51, 12, 223, 250, 41, 230, 7, 227, 7, 17, 8, 6, 219, 184, 248, 240, 214, 254, 5, 236, 254, 230, 61, 205, 217, 221, 2, 230, 211, 24, 225, 1, 5, 21, 52, 80, 252, 242, 20, 209, 207, 191, 247, 236, 58, 204, 4, 223, 236, 221, 228, 218, 174, 241, 231, 238, 236, 41, 218, 6, 248, 236, 24, 179, 40, 206, 198, 213, 36, 10, 32, 1, 35, 4, 246, 211, 8, 255, 189, 226, 235, 223, 54, 228, 156, 79, 29, 238, 248, 29, 195, 217, 209, 0, 14, 45, 29, 196, 3, 170, 201, 251, 46, 50, 191, 28, 242, 5, 1, 252, 7, 211, 246, 252, 228, 34, 254, 184, 69, 252, 23, 4, 193, 179, 186, 204, 57, 99, 182, 244, 208, 204, 193, 42, 199, 226, 45, 244, 210, 3, 17, 250, 37, 218, 33, 17, 227, 74, 0, 222, 209, 18, 237, 32, 194, 219, 2, 30, 185, 215, 233, 35, 220, 20, 225, 171, 250, 247, 34, 252, 43, 48, 29, 11, 33, 58, 246, 1, 30, 31, 238, 185, 4, 203, 251, 8, 237, 0, 17, 51, 240, 208, 5, 31, 199, 221, 191, 9, 213, 216, 219, 232, 71, 47, 235, 26, 224, 60, 210, 25, 229, 22, 50, 61, 46, 245, 225, 236, 201, 43, 192, 200, 16, 200, 223, 253, 201, 214, 247, 254, 231, 60, 219, 8, 200, 182, 41, 18, 250, 14, 218, 31, 28, 33, 217, 226, 223, 2, 197, 5, 174, 214, 3, 232, 210, 195, 54, 0, 177, 17, 188, 28, 239, 29, 244, 215, 200, 152, 227, 216, 197, 33, 230, 17, 79, 252, 205, 59, 234, 46, 61, 250, 187, 238, 212, 212, 241, 236, 57, 212, 214, 222, 19, 228, 18, 14, 233, 234, 216, 221, 204, 11, 234, 39, 49, 15, 231, 47, 219, 222, 247, 44, 2, 255, 237, 241, 243, 213, 0, 241, 243, 34, 18, 72, 218, 61, 4, 206, 24, 222, 29, 227, 7, 245, 245, 72, 61, 18, 211, 224, 209, 210, 17, 44, 11, 235, 44, 12, 227, 250, 5, 232, 245, 1, 173, 235, 212, 166, 43, 4, 56, 223, 0, 16, 222, 243, 19, 223, 194, 202, 221, 245, 43, 33, 14, 226, 8, 37, 74, 235, 247, 245, 206, 248, 183, 234, 217, 232, 213, 223, 21, 63, 166, 240, 22, 233, 7, 227, 221, 236, 43, 227, 68, 217, 212, 85, 52, 8, 27, 234, 18, 207, 186, 32, 39, 30, 34, 28, 72, 37, 27, 20, 193, 235, 214, 235, 187, 200, 36, 237, 19, 7, 231, 50, 27, 213, 51, 19, 35, 233, 38, 26, 4, 27, 240, 254, 255, 31, 244, 212, 213, 11, 5, 4, 20, 4, 208, 212, 49, 242, 41, 251, 4, 101, 217, 233, 203, 220, 217, 248, 173, 70, 243, 34, 36, 19, 11, 46, 204, 237, 10, 194, 39, 221, 223, 196, 228, 20, 234, 41, 214, 242, 73, 244, 86, 52, 53, 36, 15, 20, 75, 54, 74, 13, 78, 8, 36, 247, 56, 49, 20, 20, 26, 39, 9, 66, 50, 238, 45, 200, 230, 44, 255, 253, 206, 221, 26, 22, 66, 196, 231, 251, 34, 199, 249, 251, 13, 0, 7, 244, 229, 74, 241, 34, 2, 191, 51, 232, 28, 2, 49, 33, 6, 48, 13, 2, 20, 46, 198, 33, 12, 230, 234, 77, 217, 255, 221, 48, 235, 232, 189, 47, 25, 195, 222, 14, 241, 47, 14, 60, 27, 233, 218, 213, 5, 49, 187, 234, 47, 24, 26, 31, 16, 249, 182, 10, 6, 200, 37, 13, 16, 243, 49, 26, 247, 221, 28, 218, 43, 22, 214, 21, 226, 34, 35, 242, 186, 232, 193, 168, 57, 21, 44, 254, 61, 253, 238, 197, 25, 65, 28, 32, 53, 222, 245, 67, 26, 249, 26, 5, 220, 251, 24, 253, 1, 129, 192, 175, 214, 73, 8, 224, 22, 40, 14, 84, 180, 44, 40, 230, 38, 245, 235, 215, 9, 44, 234, 76, 42, 217, 11, 17, 19, 1, 4, 11, 25, 18, 2, 41, 2, 232, 240, 27, 169, 227, 193, 40, 0, 211, 236, 232, 77, 252, 14, 11, 64, 27, 235, 59, 254, 36, 216, 183, 219, 19, 23, 43, 88, 235, 206, 33, 2, 242, 28, 70, 37, 1, 37, 241, 188, 182, 237, 236, 91, 251, 53, 254, 49, 28, 197, 7, 218, 18, 13, 20, 48, 230, 251, 27, 224, 185, 255, 253, 237, 35, 207, 225, 211, 222, 253, 92, 254, 231, 213, 246, 47, 3, 5, 212, 246, 19, 196, 26, 8, 17, 3, 244, 211, 34, 3, 178, 217, 187, 183, 217, 247, 29, 232, 11, 239, 11, 244, 18, 236, 244, 21, 0, 237, 22, 91, 14, 1, 45, 255, 229, 4, 186, 199, 46, 33, 6, 228, 14, 9, 218, 216, 188, 229, 0, 215, 253, 170, 248, 252, 104, 239, 226, 196, 24, 8, 225, 61, 225, 56, 240, 188, 243, 250, 238, 238, 242, 236, 31, 235, 1, 164, 210, 205, 25, 232, 237, 255, 231, 2, 219, 223, 14, 231, 201, 221, 239, 254, 226, 79, 228, 230, 9, 12, 252, 202, 241, 247, 236, 8, 235, 235, 208, 231, 248, 218, 236, 233, 33, 32, 220, 198, 225, 248, 111, 225, 218, 235, 166, 46, 248, 51, 214, 16, 253, 246, 1, 2, 41, 33, 204, 250, 25, 250, 252, 54, 219, 220, 26, 243, 225, 183, 239, 3, 17, 252, 44, 39, 181, 252, 201, 52, 219, 206, 208, 17, 247, 7, 207, 237, 240, 209, 254, 246, 231, 212, 200, 204, 230, 214, 25, 255, 2, 231, 242, 19, 243, 255, 13, 13, 236, 223, 247, 7, 252, 220, 16, 34, 241, 203, 72, 201, 5, 28, 61, 45, 228, 65, 209, 36, 253, 196, 35, 47, 240, 241, 31, 243, 245, 11, 46, 35, 4, 244, 224, 20, 244, 255, 190, 37, 2, 9, 79, 249, 210, 20, 248, 29, 232, 241, 213, 253, 15, 3, 212, 53, 254, 243, 19, 191, 16, 237, 233, 214, 15, 6, 10, 230, 5, 244, 0, 1, 24, 180, 231, 189, 243, 17, 246, 22, 255, 11, 164, 219, 20, 189, 244, 235, 191, 8, 6, 250, 12, 241, 38, 193, 184, 2, 219, 34, 7, 254, 202, 26, 229, 216, 12, 228, 163, 175, 216, 227, 240, 75, 184, 225, 8, 210, 25, 33, 154, 55, 14, 18, 228, 231, 250, 237, 237, 15, 227, 236, 26, 204, 229, 10, 36, 11, 205, 15, 220, 225, 163, 217, 219, 215, 218, 9, 5, 244, 216, 243, 218, 247, 223, 230, 9, 35, 236, 0, 11, 243, 217, 247, 7, 197, 236, 36, 232, 217, 19, 215, 34, 223, 232, 37, 211, 218, 197, 28, 234, 17, 23, 68, 42, 0, 7, 5, 251, 29, 47, 238, 6, 13, 242, 83, 199, 29, 1, 2, 8, 233, 253, 255, 34, 52, 213, 242, 34, 251, 219, 39, 5, 230, 241, 67, 2, 233, 22, 54, 27, 244, 29, 254, 232, 223, 230, 181, 253, 217, 3, 237, 12, 15, 12, 231, 21, 71, 19, 7, 26, 58, 255, 194, 30, 254, 44, 28, 4, 252, 52, 248, 54, 196, 242, 223, 40, 247, 237, 214, 13, 35, 184, 19, 39, 245, 204, 220, 218, 34, 15, 240, 52, 243, 218, 28, 242, 217, 49, 14, 214, 49, 13, 37, 22, 250, 236, 250, 226, 47, 226, 14, 216, 201, 183, 31, 6, 223, 133, 240, 224, 38, 218, 242, 17, 212, 191, 247, 224, 22, 59, 32, 234, 9, 40, 235, 17, 183, 241, 232, 209, 245, 183, 202, 203, 198, 219, 23, 43, 20, 129, 49, 231, 26, 180, 8, 27, 185, 253, 40, 242, 239, 61, 239, 10, 25, 241, 39, 7, 248, 211, 222, 234, 229, 251, 237, 244, 211, 25, 222, 227, 0, 242, 251, 40, 225, 39, 33, 244, 28, 247, 18, 14, 33, 242, 67, 43, 249, 39, 40, 25, 41, 0, 8, 57, 239, 231, 12, 6, 29, 20, 19, 13, 231, 68, 244, 1, 24, 13, 45, 28, 59, 236, 7, 227, 16, 13, 45, 243, 249, 21, 45, 243, 226, 221, 8, 55, 14, 59, 243, 221, 35, 9, 223, 8, 29, 226, 19, 252, 35, 19, 45, 239, 255, 225, 12, 252, 240, 37, 14, 222, 9, 24, 233, 27, 1, 228, 16, 58, 0, 206, 233, 235, 242, 245, 241, 240, 23, 239, 239, 220, 22, 21, 238, 245, 18, 250, 241, 11, 224, 13, 7, 2, 52, 39, 23, 45, 236, 202, 251, 59, 253, 24, 22, 11, 3, 252, 250, 41, 52, 192, 4, 7, 253, 17, 231, 225, 234, 29, 12, 0, 56, 243, 235, 252, 5, 8, 11, 76, 204, 253, 26, 47, 252, 218, 235, 44, 235, 38, 42, 220, 11, 239, 29, 37, 58, 44, 232, 237, 19, 65, 12, 240, 37, 68, 32, 217, 104, 30, 226, 38, 28, 207, 53, 18, 16, 214, 230, 36, 35, 27, 13, 5, 21, 32, 247, 245, 15, 59, 27, 36, 255, 73, 70, 246, 5, 12, 14, 34, 19, 0, 37, 34, 37, 35, 18, 56, 223, 36, 35, 0, 11, 19, 63, 19, 58, 236, 30, 29, 19, 12, 55, 227, 66, 58, 21, 54, 7, 53, 21, 27, 254, 228, 26, 43, 8, 238, 70, 58, 251, 254, 0, 14, 234, 3, 35, 44, 226, 231, 68, 42, 21, 37, 247, 3, 41, 42, 245, 29, 6, 78, 78, 238, 33, 17, 83, 34, 254, 22, 45, 252, 241, 13, 45, 236, 2, 236, 236, 17, 31, 254, 19, 27, 9, 230, 230, 228, 250, 28, 247, 236, 247, 211, 85, 227, 32, 22, 34, 250, 34, 248, 232, 40, 246, 56, 221, 225, 0, 229, 198, 18, 25, 254, 66, 47, 17, 36, 232, 42, 239, 84, 16, 213, 14, 230, 232, 253, 225, 30, 238, 71, 248, 242, 41, 45, 243, 72, 217, 32, 235, 255, 215, 208, 41, 244, 75, 9, 55, 57, 239, 31, 233, 33, 7, 25, 36, 227, 27, 238, 30, 60, 36, 9, 0, 216, 39, 79, 253, 70, 26, 244, 8, 31, 237, 254, 30, 23, 57, 242, 9, 24, 53, 7, 10, 83, 47, 25, 26, 246, 240, 10, 50, 217, 239, 29, 90, 37, 40, 40, 4, 23, 0, 227, 33, 41, 33, 16, 50, 57, 247, 72, 70, 41, 38, 214, 44, 76, 25, 35, 74, 3, 36, 4, 43, 51, 6, 74, 71, 44, 243, 240, 244, 31, 20, 86, 251, 60, 255, 245, 23, 67, 227, 234, 36, 251, 48, 25, 254, 230, 48, 39, 36, 1, 50, 54, 50, 216, 247, 46, 4, 47, 251, 6, 4, 11, 75, 58, 1, 25, 245, 18, 27, 26, 255, 212, 63, 30, 251, 247, 14, 63, 22, 222, 241, 241, 236, 10, 31, 60, 3, 2, 42, 252, 237, 54, 225, 13, 23, 255, 28, 7, 211, 36, 249, 17, 38, 54, 21, 238, 3, 231, 213, 9, 21, 58, 244, 15, 28, 49, 242, 31, 23, 215, 57, 243, 18, 246, 31, 8, 32, 13, 251, 74, 214, 4, 6, 9, 34, 39, 253, 50, 238, 219, 21, 33, 44, 245, 252, 12, 60, 62, 248, 34, 4, 25, 2, 33, 38, 32, 52, 248, 238, 7, 37, 207, 47, 254, 12, 237, 248, 237, 229, 222, 7, 210, 253, 235, 224, 239, 3, 9, 255, 192, 242, 242, 224, 218, 58, 0, 27, 254, 249, 232, 233, 242, 214, 15, 20, 5, 230, 34, 235, 242, 210, 234, 18, 242, 246, 238, 245, 253, 242, 50, 219, 227, 90, 186, 216, 251, 88, 18, 13, 247, 227, 212, 29, 15, 15, 254, 230, 228, 221, 29, 19, 227, 201, 239, 214, 232, 41, 208, 11, 20, 252, 22, 11, 218, 54, 245, 213, 230, 34, 217, 25, 241, 188, 218, 240, 241, 49, 242, 250, 242, 240, 37, 223, 20, 197, 22, 11, 1, 58, 207, 72, 242, 2, 66, 251, 229, 60, 224, 28, 40, 35, 228, 232, 218, 213, 195, 221, 31, 253, 10, 60, 254, 245, 57, 11, 228, 239, 253, 21, 24, 68, 14, 30, 18, 233, 27, 250, 6, 249, 4, 214, 243, 66, 254, 243, 209, 213, 213, 20, 3, 251, 21, 28, 254, 238, 35, 7, 6, 212, 24, 188, 42, 5, 222, 46, 210, 21, 38, 246, 233, 22, 207, 13, 12, 0, 43, 226, 3, 217, 234, 35, 12, 23, 33, 238, 238, 233, 215, 14, 10, 203, 2, 33, 220, 222, 203, 20, 197, 224, 20, 4, 191, 255, 247, 0, 249, 29, 34, 230, 8, 241, 234, 10, 11, 15, 244, 7, 39, 240, 16, 29, 54, 16, 10, 247, 252, 17, 205, 10, 236, 229, 61, 215, 6, 238, 194, 41, 4, 26, 23, 7, 18, 247, 234, 228, 8, 231, 225, 8, 39, 211, 236, 248, 205, 231, 62, 3, 231, 24, 211, 84, 180, 11, 29, 27, 6, 53, 24, 61, 15, 19, 4, 209, 199, 252, 17, 58, 235, 11, 222, 25, 244, 204, 29, 197, 213, 169, 35, 243, 1, 52, 205, 50, 233, 209, 37, 246, 18, 96, 19, 40, 42, 47, 190, 238, 4, 207, 241, 30, 214, 215, 9, 232, 236, 254, 65, 204, 240, 12, 247, 253, 10, 91, 10, 79, 9, 237, 35, 24, 10, 62, 33, 11, 17, 6, 222, 205, 239, 209, 236, 26, 242, 213, 231, 252, 13, 225, 76, 240, 1, 14, 23, 62, 20, 55, 216, 84, 248, 42, 40, 213, 228, 43, 232, 8, 64, 55, 24, 31, 30, 246, 20, 88, 13, 35, 234, 35, 248, 40, 249, 38, 5, 2, 247, 18, 21, 211, 9, 249, 235, 224, 237, 14, 55, 239, 217, 46, 19, 19, 213, 32, 49, 5, 39, 212, 246, 17, 214, 11, 217, 234, 20, 232, 239, 248, 80, 43, 250, 34, 191, 215, 222, 14, 54, 238, 14, 246, 26, 237, 16, 239, 9, 32, 236, 238, 253, 47, 249, 247, 13, 49, 252, 236, 33, 229, 16, 64, 47, 251, 220, 57, 190, 24, 224, 204, 5, 249, 25, 63, 18, 199, 31, 2, 8, 225, 16, 254, 42, 97, 219, 232, 210, 3, 230, 14, 32, 246, 12, 43, 18, 251, 252, 95, 1, 236, 253, 220, 73, 18, 238, 8, 52, 250, 7, 36, 14, 207, 43, 225, 24, 116, 192, 12, 243, 2, 39, 233, 197, 238, 224, 245, 104, 231, 25, 38, 27, 44, 30, 245, 12, 253, 255, 238, 8, 7, 34, 31, 40, 10, 17, 214, 245, 68, 225, 25, 249, 38, 41, 29, 238, 245, 58, 18, 83, 31, 244, 23, 254, 40, 222, 19, 68, 210, 52, 34, 44, 57, 37, 16, 8, 236, 58, 27, 6, 246, 237, 102, 24, 237, 245, 3, 233, 33, 2, 228, 14, 8, 2, 250, 36, 10, 37, 39, 215, 248, 66, 215, 28, 47, 7, 192, 159, 30, 36, 8, 244, 207, 10, 247, 242, 27, 6, 24, 249, 3, 249, 42, 83, 29, 46, 65, 254, 244, 47, 244, 56, 243, 24, 206, 25, 30, 19, 25, 199, 19, 61, 26, 45, 37, 226, 238, 35, 12, 23, 19, 98, 53, 15, 66, 41, 235, 242, 71, 242, 32, 69, 33, 7, 62, 69, 17, 22, 252, 83, 11, 3, 34, 9, 249, 36, 13, 52, 0, 243, 42, 6, 41, 102, 81, 37, 26, 67, 5, 39, 15, 245, 216, 52, 16, 65, 251, 84, 30, 63, 241, 254, 54, 22, 32, 27, 252, 103, 125, 24, 28, 246, 240, 8, 219, 46, 39, 61, 251, 74, 66, 242, 247, 233, 4, 1, 21, 69, 16, 40, 89, 237, 11, 26, 4, 43, 29, 36, 238, 13, 33, 210, 38, 8, 254, 249, 237, 247, 44, 48, 230, 79, 8, 234, 53, 0,